const unsigned char model_uv[] = {
28,0,0,0,84,70,76,51,20,0,32,0,28,0,24,0,20,0,16,0,12,0,0,0,8,0,4,0,20,0,0,0,28,0,0,0,152,0,0,0,240,0,0,0,200,175,0,0,216,175,0,0,92,183,0,0,3,0,0,0,1,0,0,0,16,0,0,0,0,0,10,0,16,0,12,0,8,0,4,0,10,0,0,0,12,0,0,0,28,0,0,0,60,0,0,0,15,0,0,0,115,101,114,118,105,110,103,95,100,101,102,97,117,108,116,0,1,0,0,0,4,0,0,0,144,255,255,255,13,0,0,0,4,0,0,0,8,0,0,0,111,117,116,112,117,116,95,48,0,0,0,0,1,0,0,0,4,0,0,0,26,80,255,255,4,0,0,0,12,0,0,0,107,101,114,97,115,95,116,101,110,115,111,114,0,0,0,0,2,0,0,0,52,0,0,0,4,0,0,0,220,255,255,255,16,0,0,0,4,0,0,0,19,0,0,0,67,79,78,86,69,82,83,73,79,78,95,77,69,84,65,68,65,84,65,0,8,0,12,0,8,0,4,0,8,0,0,0,15,0,0,0,4,0,0,0,19,0,0,0,109,105,110,95,114,117,110,116,105,109,101,95,118,101,114,115,105,111,110,0,17,0,0,0,212,174,0,0,204,174,0,0,188,142,0,0,44,142,0,0,28,14,0,0,12,13,0,0,252,10,0,0,220,10,0,0,204,8,0,0,188,0,0,0,180,0,0,0,172,0,0,0,164,0,0,0,156,0,0,0,148,0,0,0,116,0,0,0,4,0,0,0,218,80,255,255,4,0,0,0,96,0,0,0,16,0,0,0,0,0,0,0,8,0,14,0,8,0,4,0,8,0,0,0,16,0,0,0,36,0,0,0,0,0,6,0,8,0,4,0,6,0,0,0,4,0,0,0,0,0,0,0,12,0,24,0,20,0,16,0,12,0,4,0,12,0,0,0,83,1,74,185,14,22,183,253,2,0,0,0,2,0,0,0,4,0,0,0,6,0,0,0,50,46,49,56,46,48,0,0,70,81,255,255,4,0,0,0,16,0,0,0,49,46,53,46,48,0,0,0,0,0,0,0,0,0,0,0,144,74,255,255,148,74,255,255,152,74,255,255,156,74,255,255,160,74,255,255,118,81,255,255,4,0,0,0,0,8,0,0,13,126,72,189,62,38,1,190,154,60,15,62,177,109,223,60,103,4,158,61,172,187,160,61,75,152,44,188,7,89,117,190,185,30,198,188,151,9,230,59,38,26,114,190,225,247,172,189,158,112,233,188,57,178,64,60,242,164,62,62,190,248,74,190,101,101,189,187,12,152,161,188,193,178,175,62,133,53,245,59,163,178,206,185,75,243,234,61,133,184,219,189,190,7,128,190,152,164,182,59,230,41,229,59,17,151,46,59,245,2,140,62,152,122,96,188,119,116,246,57,175,228,166,62,131,201,27,60,181,136,202,60,39,104,72,60,251,142,250,61,107,5,130,62,55,82,216,188,74,180,78,188,105,198,0,60,64,125,133,62,120,175,2,59,177,45,207,59,188,68,198,61,28,118,75,190,16,89,217,188,177,251,141,188,32,112,176,62,109,234,25,188,9,80,133,188,101,134,151,188,191,36,97,62,24,68,95,187,13,78,125,58,155,214,72,189,180,215,148,189,59,157,63,190,114,36,191,189,16,211,201,189,185,69,105,190,81,187,116,61,159,62,32,189,186,25,19,58,30,100,56,190,119,68,30,62,231,206,168,188,98,62,134,60,3,230,181,60,179,73,146,62,86,6,66,190,189,133,150,61,167,11,170,62,177,118,106,187,239,59,240,189,193,166,146,189,49,116,90,62,131,198,8,190,241,40,83,190,169,73,12,190,254,9,91,190,88,31,242,60,229,222,98,188,132,248,213,58,50,169,159,189,222,32,13,62,146,67,69,188,217,17,69,60,166,23,209,59,20,126,143,62,219,116,99,62,28,131,34,62,52,102,159,60,255,198,33,190,159,147,220,189,59,185,82,62,223,153,42,60,155,112,171,61,220,127,174,189,55,179,209,189,100,17,156,189,63,191,191,61,143,216,45,61,249,150,141,188,158,7,127,190,131,214,43,190,69,14,14,62,117,29,17,62,237,222,41,190,4,20,59,58,101,206,129,188,162,237,173,60,193,156,177,62,1,37,28,61,124,206,124,188,134,59,150,188,207,245,199,62,154,67,158,60,15,30,171,189,19,18,56,189,183,221,111,188,58,185,195,190,252,137,84,58,67,195,132,188,56,111,28,62,195,176,16,62,244,167,56,188,241,138,230,187,224,88,119,189,243,227,223,189,228,137,78,62,144,133,31,190,238,19,164,61,179,41,133,61,19,167,102,61,179,73,26,61,135,149,170,62,154,146,212,188,178,224,151,187,195,78,11,188,5,98,166,189,63,90,1,190,96,48,184,188,56,42,27,60,10,165,254,61,58,185,125,62,42,222,25,189,109,254,247,59,124,14,228,189,86,107,137,62,196,54,169,188,78,216,167,188,207,62,154,59,237,190,129,62,151,143,71,190,24,129,77,190,89,129,38,62,247,5,193,189,198,3,180,189,162,179,91,189,6,233,147,62,197,189,137,61,232,230,154,188,189,93,87,60,192,129,172,62,204,85,125,60,203,72,81,188,57,134,239,187,33,115,66,190,46,197,101,62,24,116,251,189,102,225,208,189,40,212,104,62,27,48,90,61,189,175,115,189,215,62,191,60,198,145,63,61,179,234,124,62,196,247,62,188,126,198,47,60,73,87,128,190,97,2,163,61,123,77,34,190,214,82,143,61,43,200,88,189,135,248,135,189,226,80,67,61,138,194,75,61,148,77,239,61,82,83,51,189,148,249,191,189,65,161,33,61,164,84,138,62,232,38,27,189,60,23,215,189,61,105,219,60,236,205,0,190,16,128,37,190,250,159,133,190,100,29,31,61,244,251,123,185,40,172,190,186,114,53,73,190,88,19,0,190,186,105,137,61,24,114,101,190,246,70,89,61,186,96,202,189,210,208,170,61,11,49,168,189,170,97,211,61,233,84,28,62,60,102,173,61,170,67,243,188,35,208,194,61,55,179,39,190,175,218,133,188,219,37,154,189,0,102,28,189,170,19,67,61,189,156,24,62,181,74,87,62,107,196,16,190,10,229,156,61,28,143,39,62,160,242,42,190,188,50,116,188,203,44,174,189,6,5,184,188,91,59,74,190,31,238,38,62,75,164,13,189,27,182,7,190,141,57,191,61,124,251,145,188,91,226,152,59,49,218,90,62,197,226,174,59,30,251,148,60,51,108,163,188,206,239,228,59,246,77,158,190,192,177,0,61,197,167,101,61,50,43,41,190,234,105,160,188,183,205,223,59,63,89,174,60,170,151,140,61,184,91,37,62,130,2,40,62,100,118,67,190,219,213,46,190,171,130,22,188,127,146,143,189,40,52,153,190,178,56,31,189,201,119,149,189,28,12,176,187,242,166,198,187,238,41,118,188,131,33,61,190,18,168,43,189,2,248,243,188,147,50,155,60,43,253,133,190,168,103,130,61,112,212,131,62,130,202,203,188,157,51,2,62,56,1,243,59,162,15,116,187,45,11,78,190,217,230,28,61,234,243,225,61,78,165,153,189,172,134,17,62,161,127,115,62,113,91,237,61,133,52,112,189,53,30,107,62,156,142,157,61,45,71,96,60,27,145,89,188,147,13,170,61,190,67,230,61,105,13,60,61,222,91,4,61,212,1,1,62,98,106,132,190,214,101,226,187,193,205,71,188,238,213,159,62,73,180,91,60,193,169,41,189,211,99,249,189,210,207,72,190,166,75,100,190,253,161,189,187,193,98,250,59,98,96,102,60,114,133,38,62,141,204,146,61,255,132,97,61,183,1,141,189,247,224,86,190,85,1,57,188,125,46,171,58,16,225,14,189,17,140,127,62,76,242,227,60,240,20,26,62,52,176,103,190,62,83,234,61,110,97,174,60,137,248,0,60,12,163,49,190,88,31,20,190,67,134,15,190,19,86,45,190,16,59,48,190,210,8,149,189,93,56,54,188,106,212,86,189,36,185,109,62,81,102,66,190,11,67,181,189,252,189,136,189,180,170,110,60,6,195,75,62,127,165,143,61,145,192,244,187,24,251,156,58,191,234,179,62,151,25,89,61,4,159,50,189,206,100,146,190,9,168,238,189,84,115,92,190,216,235,4,190,239,130,5,189,163,40,156,189,52,128,86,59,4,212,163,60,124,226,132,189,171,247,157,62,198,171,144,58,9,157,133,188,39,232,243,188,234,107,193,190,188,233,202,187,207,51,34,60,86,59,153,61,33,247,73,190,2,212,93,188,230,29,118,187,47,7,157,62,101,62,64,60,11,24,190,189,24,224,7,189,195,46,124,190,133,57,99,189,33,122,7,188,41,253,67,61,17,211,21,62,86,82,136,62,107,229,239,61,177,178,41,61,160,226,166,61,13,248,77,62,34,25,173,60,225,224,121,59,157,2,52,190,253,67,47,190,156,217,168,61,156,144,159,188,112,172,243,61,102,235,160,62,174,64,226,61,213,174,201,60,54,37,78,62,87,104,168,189,126,239,11,189,86,3,51,62,237,51,171,189,183,112,13,190,233,3,213,188,231,18,109,62,14,108,116,58,222,21,125,189,221,54,194,59,155,78,225,187,176,5,210,189,166,94,60,190,205,71,205,59,159,204,55,190,14,22,201,61,103,120,96,189,19,46,52,189,208,144,178,188,197,212,162,189,112,3,59,190,227,82,119,189,131,105,129,189,81,238,149,190,210,21,38,189,144,217,64,62,222,179,50,190,223,197,39,190,225,33,220,189,79,167,71,61,174,84,68,62,107,129,8,189,232,90,214,61,82,9,219,60,43,137,7,188,12,128,234,61,98,125,99,62,101,81,230,188,78,74,146,189,99,80,132,62,58,214,106,61,185,76,145,61,189,197,56,61,113,210,143,62,39,175,0,189,93,16,218,60,110,89,5,60,254,112,67,190,218,114,47,190,218,29,174,60,63,219,229,188,52,44,56,190,124,102,169,189,93,131,139,189,240,34,93,189,182,50,28,190,177,221,24,190,211,223,225,188,193,109,158,189,164,175,180,189,111,141,28,62,131,144,193,61,111,90,167,60,33,21,251,61,58,115,91,62,91,153,211,189,228,104,155,188,231,246,20,62,17,77,110,188,245,24,30,188,57,125,0,188,49,226,212,61,181,118,12,62,138,124,178,59,65,2,92,61,160,204,136,190,167,61,206,61,215,139,148,189,149,47,192,189,24,122,94,189,132,118,2,61,233,140,139,187,31,81,192,59,146,62,239,189,213,236,148,190,64,8,5,61,169,92,96,189,111,193,160,62,242,135,175,189,61,182,216,60,14,141,137,189,231,250,139,190,212,169,255,61,156,239,178,188,17,190,199,188,50,81,251,56,164,131,140,190,171,181,98,61,235,154,65,61,148,19,101,190,43,7,11,62,133,95,192,59,161,246,205,187,151,123,174,188,93,128,98,190,37,114,132,188,180,6,8,61,66,72,244,61,120,52,132,62,235,211,25,190,182,216,113,190,131,125,22,62,179,78,54,62,221,159,235,61,202,1,249,189,86,117,62,62,183,134,140,62,200,250,222,59,5,98,203,188,123,34,121,190,242,211,245,61,138,200,186,189,15,79,51,61,155,247,138,62,171,108,247,60,247,120,57,60,238,82,140,187,155,22,129,62,105,223,28,188,171,177,10,190,38,59,199,61,33,63,131,62,240,181,235,187,130,89,255,255,4,0,0,0,0,2,0,0,160,57,135,189,171,101,13,190,161,25,30,190,219,209,233,189,198,128,34,186,132,177,152,189,148,203,17,190,254,249,188,188,135,13,124,61,211,36,241,189,234,187,38,190,14,220,19,189,135,111,157,57,85,56,74,61,76,0,193,188,31,55,2,189,39,45,42,190,128,180,240,189,68,92,162,189,78,60,197,188,194,117,73,60,101,113,14,190,208,112,15,189,56,231,33,188,11,48,182,189,182,133,18,190,228,41,234,188,82,185,185,60,202,126,110,188,56,141,14,189,90,69,61,190,229,15,228,189,176,36,243,189,1,104,64,189,186,247,10,190,160,123,170,59,227,160,180,61,215,115,249,189,40,135,117,188,99,186,105,61,36,19,181,188,164,255,55,190,1,8,163,189,164,71,90,61,35,20,102,61,247,95,9,190,138,238,245,188,51,146,36,188,184,164,95,61,217,111,132,189,27,190,193,188,44,75,135,188,126,46,194,187,180,14,167,186,236,205,169,61,55,202,150,60,55,133,193,61,228,158,151,60,56,33,121,188,151,43,99,189,119,46,48,190,62,2,43,190,238,131,80,60,165,83,175,59,143,230,10,188,117,244,36,189,113,247,10,61,158,252,0,190,84,231,0,189,122,48,190,189,13,57,11,190,131,217,79,190,78,244,234,188,254,76,52,189,202,136,187,189,125,129,1,190,93,90,84,189,7,11,254,188,157,142,184,189,178,229,6,189,130,138,200,189,90,235,213,189,208,163,115,189,46,239,131,61,82,53,125,188,73,62,196,187,80,91,197,188,112,148,34,190,225,180,94,188,82,219,164,60,36,33,244,61,153,21,137,188,12,128,228,189,67,103,133,61,249,37,148,189,237,12,250,189,29,234,132,189,244,116,39,190,155,25,16,190,230,243,90,190,71,178,187,61,29,236,175,188,153,191,68,190,67,0,22,61,98,175,9,189,60,142,154,189,132,96,240,189,68,104,52,60,214,204,108,188,228,253,223,188,216,24,225,61,178,100,217,189,41,145,192,60,134,70,53,61,123,122,28,186,20,116,235,61,117,26,71,60,87,232,201,189,91,188,11,189,78,78,210,189,229,92,16,188,15,218,81,61,65,223,131,61,101,155,147,189,146,149,105,189,16,39,215,189,42,49,19,60,17,160,60,189,142,91,255,255,4,0,0,0,16,0,0,0,240,40,27,62,162,145,197,189,136,95,117,189,153,127,13,190,170,91,255,255,4,0,0,0,0,2,0,0,105,163,63,190,249,103,142,61,163,187,147,189,237,67,73,189,20,31,142,61,195,20,28,62,72,203,211,61,129,167,123,62,228,216,156,62,130,196,46,190,18,248,4,190,110,140,125,189,65,97,209,61,21,190,100,62,176,169,104,190,49,136,190,61,60,15,200,189,149,187,140,61,179,93,52,62,68,45,237,189,42,83,219,61,66,161,73,61,109,96,132,62,99,144,86,190,128,173,78,190,32,187,197,61,168,226,148,62,125,58,138,190,5,251,53,190,10,179,95,61,214,238,68,62,108,224,244,61,12,142,183,189,206,112,21,62,120,174,94,190,92,202,14,62,243,47,169,190,99,15,106,62,238,96,24,62,105,98,14,191,157,194,209,61,66,122,152,190,22,130,171,190,159,247,61,189,181,29,17,190,153,172,140,190,201,199,253,190,5,191,121,189,93,11,75,62,50,32,232,61,30,56,135,190,231,241,156,190,115,247,167,190,131,228,0,62,205,204,49,62,122,9,170,190,215,72,127,59,245,133,33,191,117,3,27,191,149,89,8,190,109,224,41,62,80,116,169,190,247,223,246,190,210,224,12,191,65,58,64,62,202,19,86,189,193,1,119,61,22,116,63,190,30,18,110,61,198,52,44,61,172,58,238,61,171,236,61,190,152,111,175,62,11,64,114,189,148,250,176,59,12,155,209,189,143,162,226,61,173,128,187,189,115,34,90,190,56,186,241,190,77,185,16,62,38,225,216,188,202,74,50,62,215,50,149,62,115,162,187,61,114,1,117,60,187,2,130,61,249,113,42,62,127,158,9,62,220,37,85,189,57,81,13,189,207,187,147,188,210,201,144,190,105,245,142,190,33,206,3,62,244,32,246,190,169,165,44,62,34,142,245,190,44,77,107,189,119,168,191,190,217,124,186,61,64,125,73,190,27,57,254,190,64,20,124,62,239,71,139,61,166,175,168,189,43,5,186,190,95,66,69,62,204,7,145,190,41,137,5,62,118,102,163,190,194,107,54,62,70,104,139,61,198,66,116,190,125,40,185,189,246,118,111,62,247,234,164,187,158,235,251,190,156,62,195,62,149,25,7,62,212,90,210,61,21,16,162,61,243,229,143,62,144,47,109,189,184,53,155,61,15,78,1,60,167,84,27,62,177,47,78,62,182,93,255,255,4,0,0,0,0,1,0,0,25,108,14,191,114,233,1,64,30,86,30,190,231,38,97,64,125,216,255,191,150,155,100,191,49,184,156,189,122,207,204,190,121,239,231,191,95,30,101,63,83,64,17,64,153,87,31,64,19,120,18,64,119,92,14,64,50,89,50,64,196,246,66,62,38,195,186,60,206,46,29,192,8,150,23,64,235,154,116,64,34,59,151,190,45,255,1,64,113,177,167,191,244,145,184,188,67,166,24,192,73,2,10,64,151,236,36,64,95,8,229,191,245,161,135,190,54,20,110,63,92,74,213,191,58,6,141,62,136,158,141,64,251,242,209,63,43,217,233,63,32,39,204,190,3,156,144,63,92,5,143,191,138,52,8,63,227,123,180,63,47,147,191,190,45,67,11,64,34,153,132,63,6,62,216,190,178,118,13,64,241,54,251,63,71,137,38,190,147,0,77,63,27,43,224,62,133,134,190,63,49,16,12,191,108,80,111,64,166,178,234,191,129,224,155,190,57,187,93,191,183,178,30,64,49,37,52,192,124,124,233,63,199,157,97,191,187,192,162,191,45,206,87,63,70,209,193,191,27,241,140,191,170,44,47,192,194,94,255,255,4,0,0,0,0,128,0,0,237,106,14,191,99,74,113,63,107,114,17,192,224,255,20,63,71,101,131,63,178,10,27,191,236,243,40,64,132,203,215,62,97,108,104,61,186,106,22,64,158,40,160,61,38,11,131,62,216,32,187,62,2,71,161,60,184,230,56,63,207,152,189,62,138,60,9,64,63,126,227,61,164,235,136,62,211,150,224,190,251,227,154,63,39,75,227,63,23,93,82,191,169,84,76,62,88,201,81,63,94,86,239,191,8,176,55,63,255,175,6,191,30,89,203,62,209,139,117,63,211,19,157,190,240,217,250,192,152,102,60,63,61,13,63,63,102,202,73,63,10,224,131,61,56,97,122,190,152,54,22,64,220,238,90,62,39,111,176,62,127,148,62,63,29,191,126,63,157,106,76,63,197,154,76,190,50,234,57,191,87,22,244,62,167,158,227,62,184,7,124,62,116,255,72,191,2,170,15,62,235,168,136,62,255,59,162,63,40,17,164,62,84,216,129,191,199,23,202,190,15,157,123,191,154,81,22,63,114,70,216,190,44,165,22,63,158,186,161,63,186,173,178,62,166,225,228,191,167,133,38,191,220,96,63,191,64,113,236,62,204,187,81,63,207,224,30,63,229,16,172,62,48,58,132,191,144,119,26,190,57,245,165,64,48,171,198,191,240,55,12,62,222,30,88,63,109,250,112,63,255,100,224,191,19,67,248,62,75,46,133,63,213,25,39,192,224,230,192,62,86,24,235,190,139,222,4,61,197,60,183,63,135,123,200,62,8,112,133,191,62,255,195,63,225,216,65,63,58,179,56,64,85,179,157,189,13,227,127,63,116,243,60,62,155,21,6,63,213,187,66,192,1,140,16,61,47,113,76,61,54,193,251,191,19,84,63,191,251,174,71,192,113,108,156,62,37,192,136,63,166,100,233,190,58,251,154,190,78,104,26,63,0,119,38,191,199,120,69,62,110,190,107,63,197,71,159,191,132,26,99,191,244,55,132,191,99,108,59,191,88,149,253,62,230,121,36,63,255,64,205,190,176,3,65,191,43,28,137,62,24,237,24,63,30,60,40,191,92,175,168,61,247,173,101,63,63,47,38,63,243,52,150,63,183,197,62,191,208,85,143,62,125,190,109,190,56,165,157,190,209,45,178,190,230,155,234,190,78,64,237,190,188,192,188,191,226,51,21,63,1,21,171,63,171,109,40,63,218,167,229,190,149,206,89,190,222,113,240,191,249,243,218,191,247,168,179,62,207,92,7,192,94,127,148,63,243,22,248,190,178,11,54,192,1,152,96,63,127,151,12,62,122,182,134,63,63,165,215,191,201,104,90,191,111,121,84,63,114,56,131,191,127,29,154,63,134,149,222,190,67,187,174,60,208,144,232,62,49,51,133,63,182,99,115,61,114,10,51,191,147,168,29,191,24,171,173,190,90,86,70,188,9,64,13,192,7,0,127,63,126,235,49,191,241,217,86,190,75,21,91,64,108,248,253,190,112,149,88,60,6,110,94,63,178,123,8,63,93,63,47,191,148,118,122,191,115,8,38,63,126,163,184,191,124,92,107,62,37,104,216,190,254,213,10,63,159,88,156,191,48,184,54,191,216,251,40,62,46,233,154,190,225,23,40,63,205,219,213,63,202,232,166,191,241,15,153,62,151,207,153,62,22,23,61,191,193,92,128,62,153,56,190,190,55,197,160,191,55,5,35,191,87,142,237,191,255,232,65,62,218,31,135,63,188,50,4,63,227,221,79,191,166,24,31,191,186,126,136,61,247,7,27,192,22,74,207,62,0,227,67,191,197,18,96,192,145,156,111,63,196,63,215,191,183,68,159,189,22,50,112,63,235,140,24,63,181,192,203,190,117,169,72,61,245,232,226,60,154,229,21,63,254,88,86,191,209,158,13,191,37,18,254,62,49,139,49,63,186,67,48,191,110,146,190,190,235,10,178,190,97,34,39,64,236,1,251,190,202,252,66,191,25,108,101,191,204,7,246,61,200,89,162,190,57,230,133,191,42,0,57,63,28,198,152,63,207,69,165,62,92,68,34,191,74,96,241,191,254,14,176,191,27,98,94,63,54,183,41,61,10,55,52,191,156,62,44,191,242,199,153,62,156,170,89,191,76,74,226,63,231,5,187,63,71,24,92,63,99,188,135,62,65,29,154,61,242,156,123,63,202,220,220,61,2,233,128,191,72,51,176,62,98,230,156,62,33,142,212,190,46,66,122,62,13,0,107,189,231,36,238,60,178,66,68,63,69,248,213,190,171,13,130,190,60,12,98,191,186,68,47,63,247,31,82,191,57,162,83,191,192,112,135,191,0,188,140,191,191,95,218,189,147,214,199,63,67,242,170,63,225,232,10,192,60,244,4,191,205,13,233,63,101,54,107,190,193,209,207,62,95,196,208,63,96,15,10,63,64,146,12,189,172,140,249,191,208,232,97,191,109,71,212,62,84,52,243,62,39,75,152,63,79,61,91,62,76,206,88,63,79,13,248,61,161,78,102,189,167,204,5,64,133,148,57,190,73,5,42,62,183,111,220,190,163,30,59,63,247,247,161,62,167,137,61,191,43,225,228,191,202,199,191,61,108,205,168,191,203,202,14,63,174,37,129,191,198,237,70,191,86,217,133,64,153,94,75,62,130,203,22,62,49,210,160,191,127,199,132,190,84,217,34,191,242,169,146,191,53,23,132,63,222,238,45,61,21,8,83,190,175,176,9,191,78,162,176,190,177,57,232,63,76,218,200,190,196,88,153,62,109,167,32,62,133,217,173,62,196,51,152,63,191,51,4,191,70,158,123,62,64,185,144,62,189,180,15,62,120,32,79,191,149,137,89,191,148,160,156,190,174,9,139,63,215,247,34,64,162,0,108,64,150,78,179,190,130,189,37,63,242,122,50,191,187,168,160,190,122,206,116,190,232,140,218,63,27,7,131,187,250,95,181,191,124,121,122,191,234,28,205,61,4,157,17,192,50,62,232,189,234,187,221,190,235,213,255,63,223,172,138,191,94,154,101,63,189,65,0,63,226,37,254,190,26,254,17,62,73,177,11,63,100,82,254,190,136,145,9,63,20,45,59,63,65,225,136,63,92,20,9,63,151,178,191,64,176,222,174,191,76,21,48,63,162,73,172,62,119,84,150,63,115,163,203,63,3,13,39,191,8,96,138,190,87,87,11,63,154,227,111,63,166,170,221,63,250,249,188,63,246,8,202,62,79,144,14,63,176,100,97,61,5,13,52,191,84,125,189,190,239,83,82,62,18,82,141,191,120,248,164,63,154,15,42,191,34,197,156,62,64,48,185,63,188,169,55,189,150,37,85,192,192,253,155,62,6,203,168,62,224,234,253,190,175,79,142,62,98,21,48,189,175,248,78,63,141,36,109,190,149,92,125,63,162,243,142,63,47,11,166,190,44,154,194,188,238,49,45,62,16,76,122,63,6,64,72,191,255,74,5,63,187,158,108,191,33,211,5,63,20,235,104,63,138,227,132,63,24,174,25,191,186,152,211,191,75,134,195,189,173,139,179,191,209,63,156,191,240,112,118,191,126,137,134,190,222,116,230,191,168,169,152,191,165,84,26,62,107,243,144,63,38,228,2,62,153,40,76,191,175,50,15,190,97,217,62,62,24,63,190,62,20,41,17,63,249,135,197,191,90,180,172,191,146,116,116,61,148,39,148,61,27,139,152,191,254,19,129,190,131,25,9,63,86,113,147,191,55,65,108,191,93,7,222,62,238,249,25,63,17,14,234,61,58,40,35,190,26,160,43,191,22,109,155,192,120,204,48,191,201,28,7,191,164,13,219,191,73,144,44,191,50,170,187,59,154,126,203,191,144,190,240,61,145,10,117,63,133,170,47,191,79,84,7,191,36,17,186,63,176,181,202,189,176,237,46,191,220,197,139,191,122,107,176,190,125,94,181,62,114,98,151,63,253,136,177,191,35,183,100,63,129,147,42,191,18,198,27,191,224,6,252,62,223,125,151,190,200,152,159,191,139,157,3,190,206,194,59,190,224,242,139,191,123,43,34,190,227,20,9,190,25,104,70,191,4,209,50,191,141,161,235,62,61,231,48,192,102,158,144,191,92,136,182,191,236,238,148,191,5,100,162,191,5,136,230,191,92,229,137,62,155,4,124,191,101,234,46,190,49,139,102,63,134,243,7,63,24,203,232,62,126,240,117,62,17,185,249,191,0,30,91,190,68,96,239,190,33,12,149,62,27,104,151,190,97,248,218,60,154,18,134,61,20,164,104,191,241,192,10,63,69,195,13,63,220,142,169,190,176,90,153,191,34,169,153,63,240,54,54,191,198,192,163,191,223,122,72,63,144,179,216,190,194,255,27,192,140,221,185,63,29,203,50,192,239,43,200,62,254,127,207,189,199,106,214,63,137,46,176,191,119,111,128,62,61,90,73,191,232,188,224,190,184,29,12,191,208,50,115,63,198,232,129,190,7,49,65,61,78,160,158,188,55,195,33,62,40,132,253,189,56,110,51,191,150,173,146,190,93,75,73,191,109,134,204,62,110,110,172,59,118,248,25,191,181,218,246,189,81,45,71,188,118,208,190,189,169,200,147,190,249,110,136,191,3,19,102,63,194,205,74,191,67,174,12,191,77,84,198,191,175,62,7,64,106,1,58,63,3,7,84,63,121,75,244,190,160,123,178,63,83,103,143,191,26,46,15,191,96,253,77,61,50,40,53,62,41,59,72,64,126,2,131,62,236,147,110,191,242,109,200,188,122,224,112,63,234,232,209,62,22,157,71,64,194,252,196,190,219,106,231,190,214,75,190,62,102,213,165,191,155,202,157,191,9,161,162,63,32,8,86,191,62,36,143,190,14,57,133,63,114,226,20,191,163,149,103,63,131,165,22,63,214,166,85,61,211,69,61,191,249,46,17,63,198,133,180,191,76,215,25,63,236,165,230,63,218,233,173,61,197,208,7,63,211,148,34,62,157,29,235,62,200,177,179,190,23,77,137,62,79,233,252,191,147,121,228,190,10,231,13,189,114,105,60,63,252,5,165,190,97,213,155,62,205,7,137,62,215,180,102,189,1,3,245,190,61,198,169,190,151,71,29,191,128,31,36,191,6,190,73,63,127,3,65,191,24,58,16,63,196,28,113,63,66,106,145,62,53,115,63,191,193,6,143,63,10,88,130,63,63,249,164,191,43,151,206,190,67,67,64,61,200,217,219,63,116,221,156,62,232,149,62,191,240,145,18,64,101,107,230,62,223,206,8,63,66,55,11,64,172,110,213,63,18,0,178,189,202,89,86,63,143,70,58,63,245,203,61,64,59,126,184,61,80,239,150,190,227,55,236,62,126,58,195,60,187,71,227,62,209,30,162,189,241,81,150,190,169,45,220,190,102,130,115,63,238,35,232,190,245,49,56,61,88,0,26,64,164,139,138,63,121,57,152,62,42,159,128,190,17,19,41,191,10,245,130,190,147,203,48,63,210,171,225,189,178,7,140,61,91,200,15,190,67,103,1,63,66,25,188,191,34,56,128,64,151,90,221,62,219,44,42,63,175,44,33,190,52,184,217,189,232,243,31,63,86,119,200,190,87,243,38,191,59,33,173,63,184,48,112,63,115,252,42,191,86,184,8,63,52,197,214,191,173,233,96,63,216,238,195,190,104,106,73,190,58,76,222,62,243,101,247,62,1,112,10,63,154,151,130,63,219,37,67,191,192,155,38,190,100,124,20,191,179,169,244,190,194,164,11,63,143,19,143,63,136,45,60,63,234,166,232,190,26,82,82,61,135,114,175,191,31,245,133,191,255,65,223,63,79,31,203,62,44,169,132,63,79,25,28,63,12,173,165,191,30,62,75,190,116,22,213,62,170,82,216,63,175,230,152,62,9,53,77,191,199,202,184,63,209,230,163,63,252,50,154,61,21,117,89,189,221,245,116,63,57,171,254,188,98,188,194,190,8,212,89,191,143,93,239,63,140,205,190,191,74,82,182,190,154,142,24,63,149,207,89,63,87,158,8,190,179,241,39,190,189,58,15,63,124,156,200,60,190,153,228,190,107,233,115,64,36,2,155,64,201,79,107,63,172,56,85,63,75,151,140,192,173,81,176,190,64,213,128,63,214,199,212,63,62,14,205,190,136,131,1,191,222,122,30,63,107,72,241,62,153,112,135,190,108,189,138,62,240,159,129,190,207,168,14,191,221,247,101,191,4,20,246,62,181,169,251,190,177,235,62,63,218,10,71,191,66,123,41,191,242,213,81,63,247,80,26,61,27,210,145,62,58,85,154,190,148,72,136,191,46,155,222,62,244,117,99,63,239,157,206,190,5,160,136,64,63,247,145,64,173,94,31,191,0,188,191,189,146,41,197,191,53,152,162,190,113,205,209,62,191,87,94,61,7,38,235,190,105,225,144,62,145,96,155,64,238,252,153,191,106,163,23,63,51,147,137,190,188,96,18,64,172,14,164,63,13,180,174,63,183,190,240,62,47,228,165,190,160,11,170,190,215,37,134,62,245,237,125,62,21,56,170,62,200,105,121,62,145,114,189,191,239,188,150,63,105,8,61,60,47,69,18,192,26,97,56,61,36,9,4,63,35,100,199,60,208,170,59,190,103,55,108,64,27,35,8,191,44,84,45,191,11,21,209,63,11,252,113,190,80,231,102,63,193,150,202,191,204,140,52,191,34,66,0,191,244,174,108,190,162,82,36,191,253,75,60,191,32,78,42,191,94,247,118,61,15,255,17,64,145,205,170,63,1,85,205,190,238,233,22,63,232,250,12,190,236,0,10,192,15,149,141,191,81,21,62,190,195,58,157,63,158,75,155,63,86,21,21,191,87,155,229,190,78,93,224,62,227,109,44,191,147,149,44,191,198,79,185,190,139,57,215,62,12,207,88,188,194,138,17,63,168,246,4,190,144,221,27,63,158,105,9,63,203,70,154,63,172,249,134,191,30,195,174,63,18,3,179,191,110,242,68,190,155,202,174,191,240,137,56,191,215,218,151,61,236,138,97,62,254,211,100,191,125,95,25,191,153,24,127,190,195,228,56,63,67,20,56,191,36,238,123,62,126,242,13,191,52,127,196,190,180,248,247,62,188,68,195,61,75,177,76,191,187,154,214,191,131,3,63,63,45,209,183,190,79,144,197,190,136,232,218,191,149,179,183,63,195,182,113,190,147,177,9,191,209,8,220,62,112,170,163,62,43,69,4,64,7,173,233,63,82,156,21,63,116,77,19,63,3,80,153,64,47,248,131,191,92,172,142,190,104,216,62,62,85,27,199,62,39,5,188,62,135,239,97,63,173,202,33,62,230,86,215,190,128,18,18,191,153,94,166,191,15,141,169,63,116,169,150,63,207,175,21,191,52,44,189,190,89,49,0,63,232,130,10,191,207,195,219,63,57,44,194,63,246,48,10,191,32,188,140,190,216,180,43,63,87,196,151,190,129,120,212,190,188,24,56,63,115,67,10,191,213,180,188,191,217,188,74,64,199,111,248,186,165,122,175,62,58,141,140,63,46,153,36,191,58,29,105,191,109,29,219,191,199,7,2,63,229,226,197,63,100,182,100,63,158,177,101,59,21,213,254,189,214,238,38,63,227,147,3,64,175,19,48,63,62,250,244,62,241,178,250,190,145,218,160,191,109,48,21,63,67,132,139,191,206,114,171,63,49,207,60,191,152,156,98,63,141,232,175,191,40,55,153,62,67,114,114,191,25,68,78,64,182,252,112,63,100,29,46,191,45,221,23,63,236,252,45,63,55,194,152,63,167,150,116,63,133,174,46,63,234,64,186,63,19,191,92,62,171,217,134,64,107,7,5,63,175,18,143,191,201,176,11,62,191,109,103,190,169,54,151,63,11,250,229,61,194,161,30,63,173,179,177,190,121,19,180,191,194,19,213,191,234,209,204,190,19,67,51,191,195,29,221,190,211,252,20,191,27,134,131,190,181,195,140,191,157,73,42,63,218,58,6,191,190,132,96,189,135,37,135,62,21,31,135,63,88,11,0,192,133,193,89,63,180,95,65,63,177,52,71,191,129,94,94,63,161,85,155,61,185,27,46,63,51,101,129,63,63,106,142,62,242,33,222,62,213,240,24,191,202,55,171,61,105,188,176,191,22,178,86,184,188,205,106,191,2,65,236,190,244,26,18,60,223,188,183,62,254,12,153,190,208,9,140,63,40,231,229,190,159,148,130,190,118,189,152,191,143,247,46,191,104,169,136,190,11,250,3,192,217,105,23,63,60,147,11,191,143,128,9,63,201,239,173,63,126,144,201,191,60,106,93,60,182,22,130,189,135,248,142,63,231,68,126,191,240,150,223,190,204,231,142,190,98,239,52,190,88,190,168,62,218,166,97,64,172,236,16,63,8,133,89,63,120,44,233,62,234,236,62,192,79,32,136,63,144,238,23,63,128,204,156,62,171,150,58,191,241,42,48,63,110,87,44,190,71,174,178,62,179,42,26,63,37,149,123,63,73,17,253,62,138,11,49,64,58,208,206,191,104,207,55,63,191,129,31,191,96,185,36,191,235,169,14,63,20,58,188,191,1,79,97,63,240,124,22,63,125,120,195,61,7,252,213,61,87,17,8,63,217,149,118,191,247,138,134,63,127,99,71,63,130,20,25,192,241,200,251,189,20,193,200,190,12,193,243,190,183,79,129,63,47,127,30,63,184,144,37,191,0,91,18,63,125,240,0,63,223,78,171,190,237,1,75,64,52,153,204,191,226,144,174,63,47,30,41,190,28,70,112,63,64,90,52,191,180,28,143,191,209,243,114,63,76,219,133,190,138,193,50,189,156,107,112,63,195,188,156,63,229,161,49,63,239,32,28,191,50,238,143,62,232,205,173,61,223,88,52,191,7,60,128,190,14,244,0,190,1,110,103,62,218,227,93,63,247,227,158,191,110,201,30,192,229,156,72,63,44,157,58,191,105,35,103,191,167,102,41,191,69,215,99,192,66,148,178,190,39,142,203,62,151,53,23,63,146,123,34,191,191,19,224,191,170,6,254,63,44,54,181,190,140,99,174,62,230,160,214,62,64,253,33,191,189,239,121,191,132,153,26,191,184,225,182,62,199,204,163,190,128,58,8,63,64,208,91,191,161,245,221,63,24,74,63,62,204,50,197,189,194,66,2,191,231,126,149,191,26,124,183,191,37,17,38,191,70,11,74,63,86,212,189,62,57,185,32,63,225,39,85,191,244,157,236,62,233,224,239,189,225,206,116,62,184,199,75,63,154,88,75,191,1,85,143,191,92,131,219,189,56,255,92,63,171,209,172,63,232,15,81,63,203,82,22,191,36,134,121,190,191,75,239,190,99,28,8,64,15,89,240,189,207,46,117,191,125,187,69,63,66,242,35,190,28,149,15,191,127,202,6,191,141,186,47,63,186,240,30,191,131,221,221,62,77,192,45,63,89,141,34,63,12,239,73,191,250,209,40,190,117,172,161,191,23,161,15,61,172,87,3,63,80,82,36,63,10,122,210,190,128,241,81,63,24,113,34,192,226,78,21,64,226,89,44,191,226,5,110,61,176,30,161,64,2,39,202,62,140,141,144,190,200,76,235,63,168,241,21,191,21,137,237,189,40,213,133,63,123,208,228,191,90,12,80,191,34,24,13,191,146,46,254,61,6,22,225,61,109,20,151,191,64,196,150,190,116,236,26,63,116,81,233,62,207,224,39,61,6,180,151,190,146,94,123,63,210,69,213,63,207,206,36,190,232,193,218,190,90,121,76,63,83,112,133,190,125,205,71,63,159,8,83,63,129,230,120,191,208,244,126,63,2,125,4,63,99,208,9,191,152,35,32,64,136,172,173,61,28,194,250,62,182,85,15,64,169,190,247,62,90,160,51,191,82,37,233,63,131,198,254,63,242,179,135,62,166,156,42,191,229,95,162,191,4,229,113,63,85,252,48,191,215,199,188,190,43,33,153,63,111,23,145,63,121,174,248,62,110,39,15,63,168,189,248,189,190,208,243,189,15,82,225,62,109,113,61,191,25,204,20,63,215,192,137,64,246,140,111,63,128,15,119,63,169,52,157,190,127,133,243,62,46,29,109,191,254,138,72,191,201,172,17,63,221,229,7,191,131,35,247,62,106,145,118,64,134,80,191,191,85,150,193,191,56,231,189,190,146,111,35,63,34,29,140,190,190,81,132,190,109,90,252,190,55,153,139,63,188,166,208,190,60,51,153,60,19,82,74,61,37,181,140,63,6,198,142,189,199,180,145,62,189,213,58,191,220,156,76,190,153,66,114,63,207,8,150,62,255,221,6,63,41,127,4,63,63,165,21,63,131,179,0,64,141,253,6,191,240,226,1,191,89,175,106,189,96,236,98,190,5,162,151,63,43,141,41,63,150,64,124,63,15,203,94,63,65,252,28,63,43,235,142,191,104,124,22,63,99,9,217,191,135,248,164,63,30,106,80,191,123,224,59,191,165,13,123,61,233,213,207,189,45,254,62,63,45,190,19,192,178,22,158,63,59,159,135,63,1,84,136,190,77,212,13,63,75,42,129,191,37,226,76,63,14,99,81,62,196,30,51,62,145,18,14,190,155,118,28,191,47,83,7,63,59,255,67,190,20,176,47,63,135,227,36,63,77,93,149,191,38,29,19,191,134,59,82,63,183,67,52,63,63,116,41,191,232,79,31,64,43,139,239,189,45,243,132,191,182,58,190,190,180,79,100,191,123,221,143,63,246,27,17,63,147,60,187,191,198,88,250,190,132,21,207,62,63,169,202,61,210,184,183,62,193,62,60,62,87,156,54,63,44,46,178,191,156,136,118,63,33,216,233,63,211,145,66,191,71,108,21,191,211,47,154,62,158,224,101,190,47,200,214,190,35,142,176,190,152,164,103,190,48,197,148,189,235,176,66,191,81,247,191,191,185,148,72,191,55,167,137,191,69,5,149,190,216,130,8,63,248,163,21,61,197,46,19,191,244,17,136,62,206,23,44,192,25,151,39,63,222,9,93,61,166,243,129,63,15,122,224,190,196,84,19,63,184,254,3,64,105,154,143,190,254,204,121,63,138,59,45,63,160,84,7,63,155,148,244,62,146,181,2,63,86,231,82,190,227,5,36,191,73,188,78,62,241,72,119,190,47,137,154,191,37,82,190,61,143,10,238,190,236,12,165,62,244,101,32,63,4,240,88,191,114,169,4,191,202,20,152,62,21,34,191,190,118,0,93,61,216,88,169,189,102,161,31,191,163,218,9,63,43,59,15,191,15,101,128,63,47,112,158,190,214,27,228,63,52,78,114,63,160,6,130,64,129,66,189,190,21,168,75,63,184,193,148,191,181,82,136,62,61,148,187,63,227,32,165,63,161,44,141,63,246,165,27,63,183,45,249,62,90,120,125,191,3,209,164,189,57,146,17,64,53,228,179,190,93,179,239,191,49,224,126,191,31,46,18,63,184,156,248,190,50,76,194,191,220,206,212,191,47,50,45,192,0,249,180,191,158,229,172,190,134,11,0,191,92,69,211,190,169,79,170,191,209,108,3,191,197,26,176,62,227,151,63,63,210,239,175,63,212,145,109,188,199,159,230,191,160,194,89,62,239,63,200,62,148,119,253,191,90,115,214,190,44,226,55,191,167,134,64,63,239,241,14,189,237,59,82,192,105,115,67,190,114,97,139,190,183,35,240,191,150,54,51,63,52,115,96,191,222,206,43,192,198,129,210,189,164,129,127,62,184,61,49,191,137,180,199,62,186,66,209,63,22,147,243,188,12,20,244,190,144,233,232,63,228,224,230,191,229,97,104,62,87,113,218,190,158,99,223,190,127,109,16,191,227,143,3,192,178,43,159,192,145,222,91,63,14,111,197,190,2,146,68,64,168,188,45,191,24,74,107,63,201,9,59,63,82,46,134,190,80,227,29,189,243,199,198,62,140,183,193,191,55,61,171,190,255,47,68,190,200,113,30,63,135,165,238,191,177,240,68,63,240,63,105,62,242,144,204,62,207,51,130,63,222,46,71,190,132,62,49,191,191,98,207,187,183,71,177,191,59,234,220,189,128,76,86,62,210,59,161,191,244,241,138,62,94,38,24,61,106,85,85,190,115,151,150,192,238,74,98,192,82,195,214,190,196,31,182,61,87,16,213,191,44,132,219,191,188,39,32,63,133,131,217,191,242,89,75,63,7,178,70,63,72,246,245,192,182,152,150,191,1,98,131,63,176,89,187,190,234,32,74,192,47,232,154,62,245,66,141,190,168,110,149,190,185,107,0,192,246,36,190,189,226,1,178,63,159,77,3,191,250,80,144,62,65,226,137,191,254,112,8,190,104,96,74,191,155,169,219,190,247,47,35,63,143,33,36,63,12,62,134,191,235,34,44,63,58,170,137,62,161,123,64,192,22,99,103,191,108,161,143,61,114,75,110,63,232,4,12,191,150,84,78,63,231,121,180,189,228,12,14,61,66,204,15,62,207,55,67,190,152,205,248,190,228,82,136,63,134,55,229,190,210,165,16,190,145,164,24,192,145,129,142,191,130,41,6,191,158,180,190,191,185,210,16,63,176,91,181,191,121,133,94,63,239,181,4,63,127,9,35,190,38,85,171,191,15,125,81,190,164,127,28,191,178,0,242,191,66,18,99,189,137,4,251,190,25,112,79,63,205,242,31,62,83,249,91,62,174,126,152,62,165,178,15,62,58,81,136,189,93,146,35,191,216,135,56,63,252,70,190,191,76,184,96,190,79,70,134,190,218,214,130,190,5,203,10,63,100,199,181,61,225,63,26,191,251,50,165,190,188,211,20,191,63,29,78,192,111,82,56,191,49,223,6,191,196,71,66,191,110,42,14,191,183,163,162,62,218,47,59,192,92,187,16,191,223,88,245,60,127,181,183,190,112,23,51,62,158,49,204,191,120,31,89,191,207,217,7,62,241,70,146,63,62,101,144,63,95,159,61,63,30,117,28,63,200,255,71,63,140,149,66,191,134,163,134,62,26,223,90,190,228,218,172,191,139,106,110,189,237,215,3,192,8,143,107,191,122,44,68,191,142,200,47,63,167,14,39,62,20,19,243,62,169,223,111,60,35,49,159,63,51,227,114,189,155,250,40,63,147,240,144,191,21,254,139,62,163,64,48,190,34,216,250,62,169,165,118,191,154,140,139,62,121,243,21,191,78,176,218,63,245,242,59,63,53,28,78,63,7,100,28,63,62,38,165,61,189,224,128,191,94,143,171,62,181,242,189,191,12,90,48,191,108,130,26,192,135,65,80,191,228,129,72,63,48,244,88,190,126,249,101,192,111,122,9,192,50,65,219,62,121,110,240,191,242,166,195,60,59,201,11,63,108,46,16,193,245,161,180,191,106,113,31,63,208,57,196,189,173,33,156,63,117,51,82,62,169,237,210,191,93,205,138,61,146,241,84,190,52,220,213,62,229,178,57,63,255,185,220,189,188,116,118,190,144,196,148,189,200,51,80,191,171,162,118,191,213,118,30,192,185,129,176,192,171,138,3,190,153,186,123,191,225,105,232,57,248,1,80,63,249,144,11,64,186,72,33,191,211,147,64,61,249,141,141,63,96,150,11,63,207,164,15,64,90,105,119,62,135,168,192,190,27,10,66,191,8,207,143,62,226,213,240,62,162,182,142,188,28,235,78,63,229,184,134,62,150,108,151,191,242,69,207,191,190,48,51,63,57,87,71,63,25,243,132,63,24,162,17,192,198,157,148,190,109,4,61,191,38,148,144,63,10,91,6,191,70,70,24,62,57,105,249,61,242,28,13,192,103,124,127,191,203,48,45,192,43,210,209,62,70,115,165,62,236,106,177,189,179,248,234,190,57,91,139,63,238,65,158,191,66,147,188,190,86,37,119,191,206,250,181,191,155,11,186,190,57,22,6,62,97,161,242,186,123,179,238,62,58,45,111,190,5,76,4,192,172,240,192,190,79,195,134,191,23,19,67,192,45,32,160,187,8,33,147,191,156,97,253,60,110,124,135,60,226,220,109,63,106,229,204,60,206,169,199,190,42,217,119,190,241,69,86,62,72,102,6,64,217,242,19,191,27,46,204,62,209,71,52,191,250,190,142,63,89,38,95,191,61,252,6,191,22,89,135,191,15,72,142,191,106,178,211,62,95,51,131,63,178,10,106,192,89,240,144,63,51,89,136,191,84,138,147,192,110,145,74,191,38,8,76,63,129,139,157,191,92,15,6,63,34,141,17,191,173,85,208,62,179,90,170,63,94,90,159,191,71,156,1,63,215,142,139,61,27,110,160,191,244,188,156,57,222,162,86,62,86,43,248,190,145,13,17,190,239,134,49,191,131,120,78,63,142,233,129,63,229,157,130,191,19,49,40,190,229,173,50,190,116,121,93,191,200,179,138,62,16,247,177,191,65,157,5,191,229,132,97,190,211,156,81,189,211,68,22,63,246,175,218,189,12,42,31,63,215,61,57,191,122,54,39,63,152,198,12,192,122,90,78,62,5,5,30,191,46,96,175,192,31,18,239,191,8,146,241,191,104,82,81,191,161,250,133,191,111,201,186,191,83,27,42,63,84,51,216,190,49,68,17,191,190,201,22,190,213,158,163,190,50,248,75,190,241,125,149,63,253,29,30,63,158,244,131,62,75,47,16,63,129,32,83,63,157,230,208,191,135,152,242,191,137,194,142,61,6,168,25,63,5,15,94,191,247,113,86,63,79,13,132,191,185,20,199,190,194,111,127,63,3,240,115,190,243,247,41,192,71,170,167,191,195,245,52,192,47,233,20,190,140,25,87,63,177,26,158,190,118,214,53,191,231,112,167,190,12,100,68,191,164,102,58,63,240,142,63,62,7,148,132,191,70,191,197,61,13,121,6,63,86,165,224,191,40,51,90,191,109,138,103,63,68,65,181,191,211,109,252,62,157,175,40,191,225,24,148,189,139,232,12,189,137,173,172,63,190,147,175,190,115,230,28,63,199,109,2,63,145,142,133,191,101,31,20,191,135,246,19,191,176,149,127,191,108,22,70,191,100,138,140,191,187,29,26,63,108,218,0,192,248,90,241,189,235,149,252,62,98,170,17,191,236,126,9,63,64,157,131,189,245,137,33,60,95,216,103,190,7,102,156,191,230,196,14,191,244,111,239,190,22,217,134,191,170,236,14,191,179,150,32,63,14,216,24,192,230,183,213,190,248,73,108,191,76,72,179,190,58,62,191,60,106,105,71,63,167,135,6,62,246,175,21,61,20,158,40,63,115,190,198,191,234,239,20,191,63,205,82,62,87,33,173,62,111,143,180,191,6,177,20,64,63,96,171,192,175,185,1,191,179,86,70,61,254,48,93,192,124,56,73,63,162,90,2,191,230,41,222,191,201,125,66,190,242,103,192,190,30,237,61,62,211,200,102,63,22,221,196,62,200,139,49,191,126,183,55,191,105,151,179,63,81,236,143,191,121,92,52,63,28,251,124,189,210,92,196,62,121,23,161,190,56,60,19,191,34,68,129,191,245,199,150,62,198,209,222,62,124,168,4,191,85,55,79,191,201,6,131,190,101,199,14,63,122,191,226,191,213,150,223,190,115,123,242,191,251,143,178,60,53,97,2,63,84,187,243,191,30,157,176,60,15,154,176,188,238,74,185,191,181,6,12,63,22,2,230,63,123,136,198,192,191,17,197,61,34,1,142,191,236,53,88,191,224,254,39,192,55,32,30,191,244,136,162,191,110,210,14,63,206,248,220,191,34,182,160,62,137,215,149,190,146,191,141,191,171,155,105,63,99,253,28,190,236,41,197,62,90,140,58,61,97,113,208,191,132,185,170,192,68,192,141,63,175,83,203,61,231,231,82,63,182,43,231,189,87,139,113,191,64,155,180,62,185,234,201,190,211,18,3,192,197,126,61,191,136,173,175,63,150,108,38,190,102,37,84,63,109,240,110,190,202,66,48,62,123,197,206,63,221,197,160,62,99,6,147,63,152,152,17,63,118,166,106,62,198,26,33,63,55,168,225,191,172,218,6,191,157,255,0,63,227,15,152,63,192,38,72,63,46,223,218,190,8,240,241,62,252,52,229,191,62,73,156,62,178,67,136,63,158,152,155,191,85,157,133,60,162,26,154,191,76,162,131,62,175,235,4,191,30,132,235,62,86,160,37,63,19,248,172,190,1,234,42,190,140,118,54,63,180,42,60,191,45,248,197,191,173,224,47,192,169,198,155,191,195,22,1,192,77,192,89,191,131,10,251,62,72,71,188,191,57,175,42,190,113,164,144,63,31,64,179,63,61,46,163,191,42,162,192,191,190,132,7,63,122,55,247,190,177,84,69,63,125,226,121,191,246,9,39,189,150,131,153,62,77,42,79,191,148,88,103,61,184,145,229,63,188,74,75,63,245,124,28,63,82,168,92,191,44,41,176,190,210,192,200,190,39,17,108,191,122,247,228,191,105,175,91,191,194,66,168,191,165,16,54,192,239,74,134,63,52,11,110,191,92,125,194,192,211,131,20,190,185,157,209,62,107,201,69,189,39,165,219,189,8,8,91,62,143,228,3,192,107,27,64,61,219,244,137,191,225,74,232,190,217,139,74,190,181,222,29,190,146,7,180,191,156,221,1,191,195,35,34,190,239,186,151,191,241,224,167,62,180,56,154,191,220,214,59,63,4,175,146,63,54,135,244,190,185,226,0,191,174,239,107,63,241,170,47,63,207,144,132,191,21,50,26,63,208,248,194,62,167,143,143,63,188,134,80,191,6,230,143,61,248,169,164,63,22,69,77,62,170,161,125,63,229,154,19,192,168,158,98,62,145,123,64,191,224,34,71,63,219,199,95,189,158,129,22,192,241,88,9,190,166,113,19,64,37,113,147,62,230,199,12,191,63,130,95,189,81,170,84,63,146,7,191,190,214,131,167,188,177,202,134,191,237,209,43,191,24,32,92,190,79,228,13,62,191,170,36,63,35,125,181,62,96,61,128,191,7,105,128,191,36,204,64,191,26,195,46,63,121,201,83,191,189,181,45,191,41,46,92,191,8,47,172,62,196,91,74,191,201,164,98,63,14,243,242,62,146,123,143,63,156,45,227,63,242,161,218,190,88,218,164,190,36,253,59,63,248,81,28,191,208,14,169,191,224,173,153,191,253,214,12,63,60,213,141,191,153,19,41,191,210,10,28,191,74,205,210,189,85,17,3,192,17,63,190,63,247,36,67,63,157,231,47,190,254,177,97,63,96,234,50,191,194,135,119,191,90,22,131,191,128,90,111,191,237,13,205,190,52,224,147,62,129,245,89,62,52,178,78,190,150,56,91,63,214,46,180,191,113,97,249,59,38,240,128,62,49,73,92,62,21,101,58,63,69,129,137,191,2,182,96,191,159,163,27,191,98,133,226,190,144,139,68,63,136,191,113,190,198,226,160,62,118,184,134,63,107,107,4,64,163,157,232,62,81,127,133,191,103,64,128,61,158,251,245,190,59,244,99,191,169,154,143,64,173,2,197,62,101,222,141,189,216,172,31,191,56,163,79,190,39,100,131,64,105,115,252,62,62,31,129,191,13,46,216,191,103,34,90,191,19,204,251,61,73,105,97,190,123,108,29,62,71,82,108,191,237,183,5,64,230,218,144,192,23,144,33,62,216,64,66,191,208,189,60,192,165,138,180,190,10,217,40,63,222,151,60,190,159,46,158,190,198,121,42,191,108,237,66,63,3,185,237,191,20,72,28,63,193,240,166,190,193,102,178,190,213,213,8,192,216,152,9,63,58,246,94,191,208,147,121,191,7,160,175,190,250,18,75,190,224,197,244,190,77,170,222,61,251,35,162,63,159,90,16,191,202,206,112,190,32,143,149,189,86,183,39,62,162,199,105,188,81,152,88,63,83,32,43,192,95,141,132,63,103,142,170,62,75,229,133,191,183,246,154,63,250,183,135,189,137,158,126,63,240,191,78,61,206,12,80,191,219,214,168,63,136,25,0,64,188,172,194,62,168,111,143,63,158,56,179,62,75,215,101,64,6,144,83,63,125,124,57,63,70,239,238,190,52,148,56,191,167,119,80,191,15,2,137,188,169,45,125,63,20,211,191,62,244,206,244,190,38,130,138,190,239,100,16,63,248,14,149,189,10,42,102,190,176,243,179,62,55,220,227,190,81,111,227,60,43,84,158,62,90,120,201,63,168,170,112,191,17,180,90,63,127,243,161,63,10,78,236,190,12,61,243,63,173,111,88,63,207,253,56,63,151,68,53,191,63,1,105,63,93,175,28,191,67,227,189,62,5,237,55,63,185,114,74,63,203,171,120,191,170,240,253,190,244,244,33,63,185,94,70,63,217,119,140,62,180,242,188,63,100,116,108,191,206,227,181,191,48,224,163,189,205,76,206,62,28,19,4,190,210,193,106,191,115,105,173,63,115,234,203,191,224,131,27,63,10,200,24,191,16,122,167,62,207,37,50,191,178,94,54,191,149,216,111,63,215,115,44,190,137,4,205,62,170,166,166,63,168,22,105,191,165,127,113,63,15,62,31,62,37,117,129,63,180,103,199,190,185,169,18,63,19,20,117,63,168,4,168,61,40,146,62,63,211,100,25,64,108,193,101,63,83,246,195,63,18,50,239,62,72,221,218,62,164,195,90,191,219,147,113,60,99,154,64,191,95,85,178,190,228,78,71,191,159,147,180,191,216,12,209,63,22,31,182,190,203,86,142,63,92,224,151,191,207,9,22,192,87,74,76,191,128,169,197,190,216,191,200,60,41,162,111,191,55,128,65,63,80,114,137,192,234,50,191,63,44,251,220,62,204,53,203,190,141,97,185,191,8,253,119,63,189,111,20,64,188,127,160,62,28,190,75,63,104,170,42,63,214,162,168,190,177,101,143,191,84,234,79,191,189,18,110,191,97,126,154,63,177,154,255,62,112,183,170,62,112,74,131,62,165,154,117,62,235,193,245,189,110,186,81,63,61,119,18,191,45,239,244,190,106,34,116,190,221,182,245,62,75,231,146,62,91,227,224,189,40,84,238,62,94,77,18,191,243,122,201,191,115,46,121,191,30,126,59,62,92,239,199,190,137,131,3,190,84,75,155,63,130,63,124,63,197,104,215,190,217,251,242,62,158,82,229,189,113,208,88,192,248,219,27,62,106,39,236,189,150,201,12,191,37,108,97,64,57,98,73,191,208,109,207,63,53,161,39,63,245,63,61,62,10,106,177,190,27,148,132,191,109,139,3,191,133,223,41,62,134,125,223,62,9,55,194,189,128,35,28,63,146,115,10,63,185,64,7,64,6,60,141,63,129,242,158,191,190,250,41,190,78,26,57,191,1,173,44,192,101,211,37,191,38,60,28,191,57,214,152,191,220,22,148,63,160,171,22,190,155,173,147,62,30,194,80,192,212,58,86,191,18,86,132,191,246,160,248,191,147,221,51,62,103,127,166,62,178,131,137,63,87,207,34,192,14,79,14,192,93,27,47,63,238,244,46,63,78,229,247,190,190,206,223,191,70,62,101,63,92,48,88,63,197,40,236,190,82,14,237,62,248,185,20,62,144,114,224,62,86,17,180,62,30,18,151,63,104,100,200,61,173,228,195,61,222,220,130,189,98,150,30,191,138,68,210,191,43,238,107,63,54,225,9,63,207,185,78,191,197,232,50,191,218,179,163,63,228,62,142,190,33,110,97,63,182,71,157,191,18,254,198,61,193,220,142,63,27,158,156,191,166,138,18,63,190,133,2,64,194,114,93,64,13,17,165,191,20,148,197,189,18,120,187,62,220,220,167,189,33,208,47,191,89,235,12,64,124,26,158,62,154,92,85,190,160,84,155,62,81,175,97,191,236,35,44,64,85,131,34,63,29,138,113,63,54,109,248,63,3,7,23,191,118,35,88,62,89,126,57,191,226,201,157,191,145,115,221,190,201,242,236,191,235,48,175,63,167,242,25,191,32,32,3,191,84,178,218,64,214,134,119,63,215,253,166,62,194,165,19,64,105,165,20,63,154,167,213,189,77,181,84,189,94,105,200,62,69,204,138,191,148,36,238,61,78,89,1,191,113,142,37,63,169,5,229,191,249,224,41,63,203,172,180,190,78,246,68,63,180,200,46,63,115,126,186,191,31,226,148,190,114,90,131,190,54,88,170,61,6,202,183,61,108,1,99,62,169,113,140,63,166,216,28,191,143,87,30,63,214,30,0,64,122,234,125,63,105,11,142,63,87,118,92,62,90,49,85,63,154,155,8,63,85,76,45,61,56,113,21,64,104,146,137,63,111,29,188,191,66,99,168,191,229,67,5,63,53,135,159,191,216,178,5,63,52,73,75,63,1,97,167,190,0,117,55,63,144,129,215,62,99,6,242,63,94,190,139,190,206,253,208,63,240,102,133,63,62,236,171,63,110,75,67,63,202,30,145,63,50,252,49,63,65,224,82,63,229,220,86,64,1,106,97,191,186,78,186,62,106,200,79,63,89,222,213,190,138,206,233,63,238,156,6,63,5,168,129,63,43,193,151,63,108,140,231,190,181,200,128,64,154,248,203,191,22,62,214,190,119,225,34,61,218,165,10,190,139,111,237,191,48,69,161,63,239,116,201,190,201,153,27,191,235,245,167,191,161,98,209,62,119,33,106,63,117,127,131,191,130,38,87,62,107,94,23,192,143,61,105,191,101,238,43,63,211,60,210,191,165,223,186,62,228,120,121,189,182,94,190,187,26,107,178,63,189,44,67,63,246,147,114,190,108,114,227,62,75,227,224,190,219,9,157,60,195,124,67,63,168,22,187,60,118,242,158,191,236,24,252,61,158,172,42,191,196,134,174,61,120,147,210,190,88,46,147,62,92,169,108,63,205,186,171,191,115,159,243,190,134,47,83,191,59,41,121,190,227,201,176,63,84,35,160,63,217,148,230,190,36,187,191,61,91,129,65,192,143,236,23,191,68,123,176,62,35,195,129,63,48,11,138,190,191,147,33,190,199,215,167,189,122,239,103,63,8,152,45,192,179,179,145,62,156,193,226,62,175,211,129,63,1,86,29,192,255,166,33,191,142,66,182,58,28,79,69,191,237,184,37,191,99,8,63,191,50,94,115,192,37,32,136,63,68,210,55,60,151,114,27,64,81,109,126,191,81,90,181,190,235,34,155,191,143,104,112,189,141,94,228,189,251,84,72,62,89,224,59,63,12,81,30,191,1,27,89,62,38,10,51,63,100,129,20,192,195,58,167,62,128,253,12,63,232,220,35,191,171,53,71,191,132,53,62,191,72,171,147,62,225,211,155,62,197,222,254,190,178,4,145,62,205,108,219,62,32,85,57,191,133,22,86,63,28,108,146,190,112,57,110,191,59,250,103,192,173,49,246,191,225,199,47,62,165,23,118,191,115,219,156,191,39,141,158,191,76,154,72,190,25,2,4,191,32,180,211,189,142,214,210,191,250,43,19,193,18,98,154,62,246,204,26,63,206,29,249,191,9,212,249,63,0,144,216,191,29,189,107,63,107,217,6,191,56,253,18,192,122,227,69,191,82,52,240,61,224,196,224,191,95,206,71,62,181,140,135,190,216,44,155,191,179,102,88,191,195,102,136,191,104,191,36,64,139,179,135,191,39,119,143,191,55,2,246,62,29,136,226,62,98,65,222,191,47,73,66,63,32,26,168,63,175,30,139,189,195,149,208,191,227,193,149,190,169,43,70,191,79,9,41,64,198,32,147,62,112,235,72,190,31,151,138,63,189,46,12,190,145,169,102,191,183,183,63,191,188,193,37,190,19,6,138,191,42,241,52,189,126,54,116,63,31,5,19,63,8,23,131,63,244,87,28,63,173,180,85,63,18,101,189,190,233,236,23,190,188,49,89,190,10,227,158,59,46,241,29,190,117,44,105,191,184,220,54,63,149,60,220,62,244,54,128,190,248,184,156,189,93,219,251,62,67,226,119,191,5,226,202,190,158,0,40,63,175,11,61,62,122,143,164,63,25,165,188,191,3,246,31,63,116,84,222,191,120,232,157,190,23,77,204,191,217,195,32,192,119,221,62,191,40,118,116,191,144,233,27,64,77,140,5,192,74,21,200,191,88,101,178,190,65,125,29,188,152,219,162,191,183,108,202,63,135,125,139,191,91,190,184,190,131,98,226,190,211,76,188,190,162,47,247,190,8,144,168,61,100,237,103,191,25,81,112,191,217,213,136,191,106,170,81,191,121,54,45,191,76,127,183,191,170,126,201,190,17,240,15,192,93,26,66,192,4,181,141,191,53,149,65,191,16,7,157,192,207,8,14,62,191,193,36,190,104,1,172,63,7,238,156,61,70,96,225,60,173,50,215,191,105,81,133,191,73,66,14,62,204,209,72,191,155,22,142,62,237,152,0,190,239,53,134,63,202,118,154,191,40,230,143,62,163,250,128,62,109,111,150,190,199,37,5,191,163,124,41,190,93,227,241,190,195,148,105,63,57,124,161,62,53,175,239,190,111,70,164,190,198,185,31,192,26,163,227,62,116,122,133,192,210,125,164,63,137,64,139,62,18,99,149,190,6,36,29,191,217,39,26,191,50,180,30,191,16,234,35,63,87,98,17,191,197,11,90,191,121,45,145,63,92,228,153,191,168,11,20,192,252,39,110,60,207,41,22,63,126,224,150,191,81,25,82,63,92,127,52,62,93,25,191,191,77,50,64,63,108,41,235,190,72,43,139,63,254,170,12,191,221,166,184,62,157,207,251,62,222,152,184,62,12,200,22,190,31,4,14,64,150,58,142,191,23,253,27,190,107,230,146,190,224,52,155,190,96,169,4,190,238,193,231,62,82,44,173,191,247,107,107,63,170,171,114,190,36,123,62,192,237,190,136,63,215,209,9,191,140,0,116,190,200,164,41,63,154,221,153,63,36,28,139,63,201,46,130,191,197,103,152,191,179,193,3,191,185,57,123,63,222,154,127,63,187,107,108,191,22,186,177,190,75,200,226,191,249,80,135,63,19,80,159,190,3,230,87,63,74,65,228,190,137,86,248,190,186,231,132,190,16,33,127,63,199,194,194,189,250,241,175,62,171,94,252,56,251,112,194,190,55,98,58,190,219,13,85,191,118,60,49,61,75,31,3,192,6,69,235,190,125,147,200,190,49,101,213,191,131,71,43,63,158,194,225,189,165,10,226,190,4,200,124,63,121,236,10,64,161,48,50,190,230,88,41,63,72,99,225,63,170,164,138,191,242,2,214,62,187,55,201,191,162,233,77,191,237,76,104,63,116,70,200,62,118,4,69,190,220,212,243,62,166,143,77,63,148,35,66,62,117,13,148,187,10,221,249,63,234,185,145,189,84,238,120,63,209,52,183,63,23,108,167,190,119,167,239,62,76,127,10,191,129,90,56,191,16,127,123,191,193,158,92,192,1,21,103,64,197,157,134,63,32,146,137,190,129,161,164,192,103,143,135,63,196,5,172,63,193,202,58,63,74,26,198,190,60,66,236,189,114,123,169,62,92,218,224,63,27,160,52,190,189,39,30,191,215,247,125,63,241,209,187,191,169,51,148,189,118,174,55,62,199,156,137,62,176,187,106,62,105,98,102,191,116,236,35,63,23,121,26,63,193,63,148,191,148,20,145,190,143,10,209,190,201,128,120,191,179,126,44,190,228,42,182,190,164,204,108,189,14,165,254,191,212,154,154,191,71,61,1,63,187,156,19,63,5,248,229,191,217,1,223,62,4,84,149,62,214,48,170,190,216,47,129,191,163,210,137,191,21,237,63,63,52,226,134,63,245,27,12,63,28,110,18,191,9,96,190,191,69,109,180,62,33,175,59,62,178,94,86,63,103,193,192,62,254,33,175,190,252,107,66,191,182,94,137,191,16,16,16,63,169,19,187,189,161,76,142,190,34,155,129,62,145,102,155,191,15,29,155,63,77,4,53,191,67,194,102,189,61,201,166,62,207,81,209,190,3,75,206,191,163,110,53,191,83,161,145,63,142,125,22,62,144,238,117,191,210,61,191,191,52,20,20,64,244,53,55,62,32,172,224,61,222,240,78,189,229,94,162,191,234,138,74,190,204,180,239,190,154,239,141,191,193,160,102,191,225,67,72,61,47,141,221,189,22,106,101,63,32,246,146,62,78,117,233,63,199,192,35,63,18,4,94,62,167,72,61,191,86,168,246,61,252,210,40,63,164,76,20,63,249,67,245,62,8,181,198,63,210,219,120,191,184,75,55,191,74,7,48,63,131,158,77,190,161,226,48,63,165,214,113,63,221,97,16,63,195,91,202,62,174,98,102,191,117,10,86,63,72,33,143,63,186,88,215,191,101,32,192,191,55,43,136,63,43,57,160,63,129,105,133,191,134,71,87,191,180,196,128,191,140,56,23,64,199,162,226,191,75,128,225,190,130,149,120,63,173,229,199,62,135,23,60,63,200,159,250,191,102,92,156,62,188,206,111,62,167,175,95,62,51,134,93,189,224,54,172,190,21,116,75,191,105,16,49,191,173,83,171,63,36,22,63,191,220,253,89,191,240,197,151,191,56,94,215,191,3,109,105,63,177,40,72,64,159,143,61,191,224,59,71,191,149,64,82,191,248,117,33,192,241,222,10,63,186,130,28,63,143,90,230,190,62,208,194,62,211,13,130,189,206,149,44,191,140,76,138,191,111,80,175,191,125,248,53,191,163,252,7,190,189,39,24,192,127,99,179,191,77,86,77,191,132,223,247,61,130,3,78,191,148,38,63,189,46,239,21,63,67,118,160,61,148,225,113,63,231,27,129,191,241,104,92,62,225,150,158,63,105,226,84,61,231,187,206,191,22,92,27,62,99,53,185,63,16,162,64,192,117,120,50,191,154,49,23,63,90,41,249,62,135,154,141,62,122,92,17,63,154,27,179,63,223,48,7,63,76,226,36,190,191,72,242,189,112,17,248,62,111,149,168,189,224,136,103,63,161,244,5,63,3,222,175,61,118,40,59,63,11,106,174,62,25,23,163,63,95,215,253,62,67,130,58,191,218,146,1,63,254,59,182,62,65,239,63,62,147,44,179,62,250,7,94,191,105,68,9,191,254,217,194,63,116,204,160,191,130,188,89,191,75,63,75,191,209,82,141,191,241,8,111,191,108,209,39,191,203,30,198,190,30,93,122,191,93,153,151,62,72,146,41,191,3,50,195,191,132,209,251,63,26,155,155,62,41,128,73,189,152,24,222,63,173,49,135,190,207,80,161,191,16,199,126,190,12,207,164,63,229,34,140,63,166,92,83,191,92,65,187,62,175,98,2,190,168,243,71,189,92,151,70,63,157,246,244,190,16,15,113,191,198,144,42,63,198,13,20,191,80,175,253,189,162,253,162,189,74,188,203,63,168,61,71,190,16,114,255,187,29,213,233,189,35,68,10,191,178,111,142,63,123,29,123,191,110,250,149,191,173,136,202,62,6,174,60,62,120,128,41,63,208,41,244,63,13,69,245,191,197,199,230,62,49,244,195,62,167,12,156,63,204,191,135,190,152,11,82,63,115,21,28,64,245,62,163,191,186,250,131,62,58,215,53,191,199,187,53,191,207,125,201,59,155,193,73,191,198,87,246,63,9,237,205,190,44,183,151,191,136,227,44,63,55,237,135,191,26,28,211,63,63,186,57,63,59,236,181,190,243,248,254,190,43,194,215,63,87,56,117,63,38,124,189,190,27,223,112,63,117,141,234,62,197,38,8,63,99,175,125,62,89,1,166,59,64,211,103,191,90,200,217,64,193,165,29,189,17,14,117,190,150,245,93,64,115,28,51,191,140,231,226,62,9,75,220,62,75,168,84,63,35,135,238,190,173,32,243,62,196,52,5,191,233,230,219,191,97,230,78,63,78,171,95,190,250,15,160,190,226,110,147,63,251,47,115,191,206,165,146,191,187,165,231,190,58,84,174,191,209,239,126,60,137,94,209,190,79,251,171,191,207,221,132,63,164,74,119,62,40,213,107,191,176,10,32,64,135,34,83,64,148,253,106,62,42,26,22,190,240,0,78,63,217,147,164,63,26,160,147,191,4,170,51,64,136,34,132,63,68,7,74,191,243,28,56,64,243,175,251,62,150,83,57,61,143,205,16,190,58,190,243,63,126,1,28,63,114,224,253,63,86,191,96,63,227,0,166,61,186,75,79,190,208,43,70,191,6,179,119,63,49,60,28,61,172,18,129,63,140,183,163,191,152,229,10,191,83,40,66,63,16,107,70,191,216,44,179,190,123,183,47,63,57,211,53,63,138,204,21,63,176,226,7,63,159,154,123,63,120,113,164,191,219,40,46,191,156,23,12,63,54,18,84,191,170,28,104,191,240,32,119,64,232,97,30,61,229,141,58,63,91,37,21,60,64,190,114,63,208,151,35,61,239,149,22,191,253,171,56,63,113,212,221,190,248,87,18,190,113,24,135,63,235,150,202,189,213,179,1,64,147,169,108,63,199,71,48,63,60,36,144,191,32,146,25,191,9,53,4,191,20,14,52,191,19,72,56,191,12,98,180,63,217,69,180,63,157,20,124,62,16,206,155,61,131,215,31,63,15,26,245,189,180,108,45,190,138,4,200,61,120,89,6,188,99,96,15,191,45,230,129,190,4,78,239,191,63,120,79,63,145,33,20,191,247,82,64,63,20,252,228,62,162,14,240,190,36,247,69,190,106,157,152,191,45,187,136,191,194,22,112,63,116,40,148,63,83,155,16,191,97,211,11,62,179,216,167,191,229,23,14,64,100,241,96,63,152,56,47,191,249,151,27,191,104,241,181,191,72,169,198,63,83,195,132,63,96,195,2,63,204,183,120,191,89,58,150,191,39,39,165,63,58,193,247,62,182,148,121,61,10,119,36,191,103,6,245,190,44,219,30,191,57,183,129,63,232,180,152,62,160,115,92,191,145,8,85,62,98,7,140,62,251,86,21,63,88,74,68,191,26,123,12,62,85,246,15,63,33,114,197,191,144,53,153,191,111,218,82,62,28,124,86,63,207,85,243,63,23,144,164,62,193,223,81,188,164,2,42,63,203,255,18,63,255,189,64,190,150,200,162,189,93,76,248,189,58,170,138,191,209,55,0,63,174,177,223,190,0,136,95,63,232,94,61,191,55,31,136,63,82,210,31,191,0,57,63,192,54,71,194,62,134,35,70,63,19,161,104,190,55,27,168,63,115,201,228,62,138,7,140,62,143,224,254,190,234,209,168,62,140,43,72,191,177,6,29,64,128,210,40,63,254,44,60,61,181,212,142,190,186,202,245,191,119,184,167,191,245,214,155,190,90,219,236,190,128,212,233,191,196,20,147,191,250,189,96,62,221,207,211,191,117,95,175,190,71,70,242,189,159,160,128,190,22,225,87,191,35,15,35,191,183,179,188,191,102,202,0,63,89,208,170,191,33,75,54,63,37,225,78,63,95,244,19,192,87,89,204,61,45,147,62,191,99,195,63,63,73,142,131,189,240,69,50,64,235,19,22,62,217,214,82,190,217,162,64,190,154,165,103,62,252,227,171,191,113,115,38,190,16,185,12,63,154,123,34,191,219,184,135,191,125,50,146,62,169,250,69,191,254,19,241,62,195,187,131,62,231,134,95,192,191,227,175,191,219,40,155,190,234,55,229,61,211,35,186,61,146,132,163,62,254,60,138,63,219,31,149,63,174,245,186,63,93,57,121,63,86,5,83,189,42,8,86,190,161,25,55,63,147,112,32,191,98,114,165,63,5,23,129,63,24,35,22,191,48,142,161,188,219,244,54,63,214,30,128,190,214,12,47,191,193,203,16,63,31,136,144,63,248,19,46,190,40,248,226,190,181,206,30,190,92,178,93,63,158,200,35,63,214,21,134,63,145,32,205,61,64,158,147,62,144,19,90,63,154,182,163,190,204,111,96,63,189,137,193,189,219,169,167,62,29,233,81,62,108,24,96,191,51,109,58,64,201,117,139,191,224,71,8,63,32,140,136,191,127,241,8,63,149,233,6,191,116,112,24,63,109,70,114,63,49,38,142,63,23,212,80,63,61,174,92,64,251,255,122,63,186,131,74,190,8,203,132,63,250,242,111,190,175,44,32,189,55,232,32,64,206,57,42,191,209,113,141,62,119,105,100,63,127,199,109,191,215,112,109,191,250,146,49,61,140,244,21,189,214,32,108,63,153,106,149,191,121,171,146,62,134,160,186,190,246,122,140,189,63,44,24,190,79,228,213,190,213,180,158,59,187,140,176,189,31,103,85,62,173,13,176,190,228,177,22,191,138,101,93,62,67,143,97,190,115,25,212,190,252,205,121,64,88,198,36,64,233,195,8,62,11,137,193,190,19,152,223,63,28,123,52,63,166,96,5,191,172,103,134,62,187,195,228,61,203,108,154,191,203,203,103,190,93,219,168,191,182,30,149,63,37,35,133,62,140,62,94,64,220,151,12,63,0,163,143,191,245,146,21,62,246,81,255,63,120,128,152,190,101,180,208,191,122,247,157,63,159,69,130,63,192,235,72,63,91,162,116,63,240,110,120,60,249,5,36,191,204,185,17,64,115,235,29,62,161,167,155,63,11,139,15,62,16,191,51,63,251,4,128,62,102,94,57,63,250,39,87,191,66,0,197,190,55,130,119,191,217,184,146,189,27,30,243,191,83,173,32,64,17,218,26,63,85,35,109,190,238,25,146,63,209,173,181,63,41,97,130,63,223,148,113,191,28,196,135,63,45,100,5,64,161,155,49,63,223,98,235,63,162,148,68,63,71,63,184,191,19,26,128,191,181,41,53,62,210,3,1,61,3,158,163,61,202,14,133,61,40,72,176,62,172,201,143,63,123,222,93,63,167,115,72,63,182,119,150,62,101,51,129,62,231,252,79,62,161,57,80,63,64,0,93,63,74,4,129,189,168,24,2,62,157,83,147,62,0,226,177,191,174,198,0,64,72,217,164,191,96,103,20,63,55,135,206,190,228,116,227,191,240,191,140,63,176,25,0,189,86,2,24,192,37,185,182,191,47,222,66,190,233,52,102,190,102,120,244,189,248,226,27,189,114,0,229,190,78,87,121,191,116,126,162,62,82,255,84,63,213,143,196,190,24,197,169,191,50,254,124,63,159,31,99,189,185,156,189,190,99,71,230,190,177,112,10,64,34,240,171,191,114,68,190,190,245,222,29,62,182,1,148,190,73,70,56,64,84,18,123,64,31,238,139,190,154,154,35,61,223,245,82,192,38,251,164,62,224,207,163,62,42,142,8,192,234,75,196,190,30,237,129,62,9,157,171,60,249,144,212,191,46,63,64,191,49,166,6,190,84,101,92,190,115,118,170,191,31,186,79,61,123,181,175,62,6,131,82,191,122,204,250,62,216,118,5,191,184,255,109,191,150,107,24,189,15,78,38,63,60,147,15,63,222,31,21,62,196,115,73,62,233,114,163,191,83,181,57,191,237,124,221,191,248,71,92,63,61,111,12,192,173,83,80,62,60,166,107,62,46,195,114,190,211,160,41,192,40,223,5,63,35,107,8,190,101,135,34,191,34,60,181,191,109,125,224,63,51,34,230,191,206,245,206,190,208,169,16,191,103,47,19,192,205,145,211,191,241,4,214,191,196,35,3,63,4,101,134,63,48,144,159,61,95,209,152,61,3,213,187,63,144,226,163,191,180,126,229,62,160,142,111,189,207,140,46,61,148,190,113,191,227,100,164,192,6,229,103,191,205,221,146,188,205,2,91,63,247,118,221,62,141,206,139,191,44,251,201,62,2,31,132,62,5,18,184,62,186,229,179,191,94,185,33,64,175,120,122,63,209,250,16,192,98,107,45,191,11,0,16,191,204,101,169,190,74,124,165,61,73,243,115,190,162,57,196,190,81,208,154,63,183,166,208,62,79,24,161,190,220,51,91,63,230,164,38,62,87,21,232,191,111,91,57,63,221,175,53,191,174,5,120,63,48,204,45,191,239,71,39,62,129,166,190,189,169,202,118,191,53,42,12,192,102,234,170,191,232,1,236,62,104,181,187,189,209,248,163,62,147,94,129,190,192,37,235,61,168,106,36,63,245,143,82,191,68,216,46,63,125,9,18,63,184,231,159,191,189,10,187,190,154,19,44,63,241,208,155,190,218,95,173,63,248,32,63,191,130,176,210,190,84,88,135,62,249,116,135,192,99,0,184,190,120,96,233,61,68,248,40,63,207,215,130,189,175,73,6,63,34,233,209,63,30,171,162,190,68,211,54,191,64,160,178,190,66,163,17,191,114,109,172,191,130,48,36,63,201,193,233,190,94,124,30,63,62,161,236,63,213,128,49,63,116,116,173,189,25,159,4,191,1,45,78,62,155,41,126,191,221,80,139,192,62,171,194,63,15,6,212,62,8,208,252,192,182,211,105,191,98,65,75,191,64,232,207,191,50,24,145,61,176,197,8,191,0,43,75,62,82,225,80,63,247,182,136,191,87,195,247,62,124,126,17,191,157,38,37,192,12,50,91,191,227,84,142,61,15,63,27,191,58,0,154,191,60,81,227,191,75,45,238,190,177,98,197,187,189,173,186,62,69,162,224,189,101,160,43,191,250,27,44,191,217,115,133,63,8,155,205,190,62,169,138,191,243,115,208,63,84,21,237,61,236,184,151,61,201,13,131,191,102,83,30,191,182,28,96,191,19,204,53,191,195,8,171,63,219,45,15,191,202,65,220,63,18,84,134,191,110,110,13,63,225,171,98,191,119,1,205,62,244,255,147,191,23,84,139,190,120,92,172,63,161,76,33,62,87,218,2,64,24,10,186,62,44,94,169,190,1,169,86,63,39,131,175,190,214,50,67,189,119,209,197,191,125,114,101,63,142,203,170,62,85,84,94,61,33,56,224,189,186,21,75,62,37,209,152,191,214,199,183,191,200,92,0,191,50,57,174,190,5,56,37,63,216,85,165,191,160,197,123,63,69,148,125,192,197,171,28,62,85,152,183,192,220,254,155,189,148,109,20,191,28,150,124,191,0,232,175,191,154,165,36,191,171,222,169,62,99,102,138,61,36,235,54,63,201,94,59,63,251,3,185,62,125,197,0,63,62,116,167,191,96,43,14,191,35,209,4,191,224,220,71,191,246,78,18,63,128,86,128,190,98,214,179,60,241,213,139,191,205,211,2,63,153,170,40,191,37,15,66,61,78,84,254,190,148,176,125,191,239,240,181,191,137,115,40,62,129,39,147,190,151,133,22,62,243,151,120,191,192,86,16,63,221,38,219,63,77,31,114,63,13,37,144,63,157,17,28,63,115,186,60,192,65,174,145,189,37,223,188,189,62,50,206,190,235,157,181,63,246,70,75,63,75,4,139,63,20,63,23,63,161,21,114,63,140,224,53,190,2,234,144,192,226,109,42,189,54,38,95,190,195,23,183,62,198,200,74,191,128,176,138,191,233,45,21,191,184,117,179,190,82,65,199,63,130,104,11,63,215,81,22,191,89,207,195,189,8,153,100,188,207,81,79,190,175,96,136,64,31,23,77,64,4,244,79,191,51,54,114,190,128,244,140,64,106,156,90,63,240,79,70,191,217,129,122,192,210,112,184,62,244,176,158,61,184,170,2,63,199,129,52,63,204,159,48,63,143,209,130,188,110,184,150,60,209,157,248,62,78,211,32,63,62,137,202,189,28,55,31,63,130,52,237,189,81,254,26,188,182,85,25,63,154,196,214,189,103,134,100,63,128,114,191,190,65,184,68,62,77,144,215,61,138,117,70,189,4,152,1,63,138,49,191,62,184,188,123,64,67,234,196,63,133,80,34,63,135,79,205,62,97,232,73,190,183,23,234,191,132,123,39,62,86,193,38,64,19,4,34,191,99,183,153,63,142,14,107,192,115,215,191,63,226,86,146,63,198,101,32,63,125,104,106,192,44,32,132,190,183,204,72,192,234,255,194,62,77,16,43,63,9,232,41,191,181,81,250,61,227,67,205,63,226,43,93,191,196,204,40,62,241,113,239,60,25,4,4,192,167,85,181,62,72,143,210,63,97,11,21,63,210,215,227,62,58,195,15,63,192,169,137,190,154,68,233,63,21,250,29,62,220,122,163,63,63,254,130,63,102,45,5,191,113,214,15,64,18,87,8,64,255,132,148,63,71,57,9,63,8,247,218,190,68,145,62,191,244,151,130,63,188,245,87,63,110,97,17,63,76,22,5,64,76,31,163,63,111,253,137,63,252,21,214,191,108,18,68,190,153,201,240,63,108,237,63,63,171,243,210,190,123,251,181,191,200,232,41,60,73,37,207,62,38,156,30,62,139,45,71,63,193,3,163,189,110,238,58,63,113,178,220,62,63,206,17,63,52,87,135,62,29,101,35,63,81,252,45,63,181,41,195,190,188,4,3,63,83,28,180,63,40,192,164,190,172,10,75,192,158,33,95,191,39,131,130,63,7,27,43,191,91,85,203,63,244,130,134,63,60,62,253,60,203,53,152,191,151,6,181,63,55,69,28,61,165,19,196,60,3,2,152,62,44,150,179,189,9,62,166,191,185,108,42,64,47,134,114,62,42,130,20,62,129,180,3,190,68,251,232,63,243,174,158,63,2,252,123,63,186,36,176,62,149,74,197,191,216,103,204,190,37,89,82,191,119,141,147,62,3,157,145,62,251,204,223,62,179,214,4,192,238,228,189,192,171,33,204,190,200,41,243,189,110,47,161,192,57,153,96,191,47,155,31,63,239,97,232,63,253,72,79,190,1,100,163,61,40,4,8,60,225,170,75,191,130,44,83,62,132,40,2,63,80,64,238,190,154,99,12,192,29,154,186,63,218,85,0,62,121,211,189,188,203,117,5,63,195,228,26,191,213,238,122,190,20,144,105,63,242,135,1,63,10,143,3,191,122,24,13,62,141,176,229,62,28,58,136,63,53,158,212,63,122,54,9,63,51,1,194,61,57,49,71,64,92,238,243,190,186,202,252,190,64,132,202,63,103,33,49,189,143,185,27,191,148,172,210,191,22,28,171,190,104,177,101,63,164,51,126,64,222,63,88,190,244,221,35,191,120,66,188,191,161,100,0,191,211,200,249,63,208,75,140,63,157,242,242,62,246,4,62,192,119,69,110,191,126,44,135,191,26,6,116,63,180,232,86,61,24,77,66,191,18,235,191,189,82,86,180,63,81,195,13,63,236,170,37,64,202,34,19,63,148,83,185,189,236,2,240,61,32,169,55,63,235,45,227,191,233,2,236,62,74,101,130,189,122,40,85,62,140,14,83,191,235,228,160,62,236,229,12,191,254,245,150,63,143,90,222,188,187,132,154,190,128,115,197,63,127,137,117,191,241,15,241,188,116,170,246,61,139,233,227,191,188,113,38,191,161,28,25,63,142,79,146,191,165,133,87,63,99,251,171,63,37,99,204,191,9,21,1,191,241,183,204,190,211,143,100,63,206,124,188,189,39,151,81,191,28,243,121,61,122,164,14,190,140,140,1,64,166,0,134,191,12,195,139,62,249,102,6,63,90,208,126,191,166,188,150,63,6,182,146,190,64,8,45,191,32,77,130,191,108,118,187,63,43,193,214,62,176,40,7,191,105,47,97,63,145,176,129,63,128,139,7,192,212,223,0,63,75,12,175,191,54,242,0,192,234,215,61,64,23,210,111,190,98,151,79,63,2,222,15,190,218,234,229,190,99,104,33,190,130,59,173,191,216,27,6,191,114,109,36,191,43,153,157,62,196,38,136,62,17,173,124,191,76,238,1,190,21,109,183,190,22,10,95,61,210,68,217,191,170,133,227,62,31,44,133,191,82,12,3,191,164,241,222,61,41,26,148,62,43,28,154,192,174,48,193,191,159,93,144,63,21,252,188,192,156,51,160,190,172,143,116,62,57,64,83,192,184,211,150,190,34,115,84,62,174,30,21,191,95,211,24,64,178,218,110,63,71,96,195,189,223,238,51,63,24,202,12,192,40,153,65,62,25,73,254,190,23,35,133,190,110,63,137,191,227,11,109,62,179,140,13,64,160,168,100,62,5,130,180,190,124,255,229,190,186,37,187,62,165,92,71,190,96,51,215,190,6,15,64,62,196,37,201,63,202,131,62,64,132,162,100,191,72,134,141,189,251,241,73,63,231,146,2,62,252,19,19,63,243,117,34,63,6,11,215,63,52,30,120,191,99,199,135,62,236,3,246,61,203,103,101,63,156,11,100,190,165,208,34,191,232,69,229,189,206,150,251,190,120,102,42,191,124,11,116,190,156,13,111,63,104,201,207,188,16,149,182,190,197,75,159,190,189,46,190,191,236,132,21,63,112,20,147,188,157,238,101,191,122,13,36,62,122,134,4,192,187,23,101,63,56,75,140,62,230,153,153,190,25,4,129,62,12,212,253,63,38,128,144,191,47,212,245,190,96,7,58,187,86,242,66,63,85,21,9,190,226,14,137,63,31,115,36,191,109,197,245,62,5,46,237,188,200,252,188,63,62,52,234,191,45,182,64,63,27,149,167,189,123,135,97,191,6,89,142,63,110,209,38,189,57,181,110,63,52,239,138,191,200,245,202,63,30,231,104,190,136,54,21,63,192,241,247,190,68,249,192,62,220,159,35,63,250,24,156,62,53,222,133,61,105,194,149,63,227,55,112,63,54,174,76,191,5,162,150,190,135,79,114,191,108,209,230,190,60,52,205,62,5,196,27,63,151,227,2,63,215,58,188,63,196,9,212,190,46,32,104,188,145,127,103,63,103,83,150,191,166,249,9,63,44,238,185,191,215,113,189,190,54,164,117,63,225,119,242,63,214,11,149,191,2,208,10,190,119,145,184,62,126,190,127,63,160,174,14,63,14,55,131,190,240,191,159,191,212,225,178,61,234,26,39,191,3,118,98,63,44,219,160,190,84,95,164,191,245,223,125,63,241,65,238,62,61,188,193,63,7,11,18,64,43,180,151,61,112,217,198,189,126,255,108,63,251,132,173,189,53,150,255,191,0,114,110,64,145,148,102,191,150,89,61,190,158,226,82,64,4,209,60,63,185,249,4,190,179,112,169,190,189,101,135,190,144,54,213,62,41,178,220,189,224,203,156,191,68,9,129,63,225,148,90,63,17,213,175,190,218,124,38,61,193,231,77,62,217,182,136,62,226,94,95,62,1,170,185,63,92,3,2,63,128,12,103,190,184,146,47,63,179,127,37,63,103,44,138,63,56,180,236,61,152,91,82,190,11,253,0,190,150,136,176,190,164,18,101,191,26,210,122,191,247,54,63,191,223,174,227,190,91,184,227,189,125,168,195,191,227,129,167,191,243,135,98,61,210,135,51,63,25,196,29,63,172,253,5,63,128,8,146,63,31,186,74,63,132,134,255,62,162,238,174,190,123,217,221,62,10,252,78,63,228,107,175,191,254,38,82,191,11,20,96,188,71,4,0,191,137,117,136,191,40,46,55,63,157,178,196,191,41,46,6,63,80,7,45,63,162,159,129,191,101,147,62,189,104,157,82,192,97,185,248,62,179,252,107,61,231,13,92,63,223,141,157,190,21,214,63,64,13,254,6,63,244,72,171,63,76,125,140,62,119,116,75,191,33,70,148,64,220,231,232,191,17,246,1,64,56,101,54,63,227,228,184,61,104,5,36,63,45,155,167,190,101,19,69,63,111,120,174,62,238,21,159,63,152,78,77,190,214,173,7,191,187,181,118,191,114,69,5,62,232,64,141,63,105,229,199,63,89,255,132,62,161,208,159,62,69,14,26,191,237,170,30,191,37,76,106,63,53,152,69,63,187,134,184,63,1,61,37,63,30,20,194,190,125,226,182,62,140,156,236,62,179,49,214,190,193,209,177,62,70,23,190,190,78,143,225,62,161,149,190,191,129,158,179,191,224,132,22,192,18,129,133,191,192,36,113,190,74,235,114,191,145,187,62,64,10,53,142,190,8,15,22,62,105,223,208,63,16,76,140,190,122,38,208,190,133,189,74,63,176,207,199,189,226,51,24,63,163,92,80,62,37,150,47,64,7,112,178,62,204,245,19,63,177,55,26,191,255,45,179,190,35,203,125,64,222,124,20,58,22,210,43,191,59,45,191,191,44,68,191,62,245,123,66,188,244,9,2,190,172,76,166,61,37,39,63,62,183,36,237,63,194,128,146,62,157,57,40,63,99,136,44,191,115,63,64,64,164,63,49,191,61,243,134,62,193,148,142,64,178,34,172,62,18,39,1,63,206,170,76,191,88,174,36,189,24,137,94,63,160,31,67,63,242,80,169,61,21,147,237,190,137,2,140,191,146,208,236,190,18,1,127,190,120,5,51,191,183,50,242,190,154,52,196,191,171,195,47,190,3,15,230,191,64,177,26,61,247,128,85,190,7,93,181,191,251,39,68,191,233,7,83,62,44,81,162,62,121,198,126,192,142,54,54,64,124,18,6,191,13,173,239,190,129,50,182,63,93,81,36,63,67,181,26,190,73,186,10,63,128,236,69,190,255,239,254,61,153,204,115,191,223,188,108,191,199,210,91,62,199,12,130,62,52,246,252,61,165,244,233,191,131,11,159,63,143,144,19,191,212,238,253,62,17,96,235,189,3,37,117,191,126,233,232,63,10,43,213,63,168,74,141,190,127,15,125,191,158,45,70,63,169,151,48,189,141,92,19,64,184,69,154,61,246,36,138,190,11,115,34,190,131,114,145,188,186,166,226,191,176,106,60,190,179,162,52,191,88,156,112,191,159,94,131,190,11,246,127,192,47,19,252,191,95,157,179,63,168,106,205,62,245,106,2,62,255,171,134,191,66,210,134,63,132,148,89,62,95,138,140,190,221,97,225,191,100,59,84,191,119,131,67,63,81,8,124,63,35,161,118,63,48,87,67,62,23,52,22,60,179,156,222,62,75,27,104,191,136,139,202,61,139,21,245,189,82,178,185,190,199,204,124,191,140,193,147,63,65,102,125,191,206,0,155,61,133,131,72,189,84,129,154,190,150,183,87,63,128,179,23,63,4,171,22,63,201,192,60,191,149,165,145,191,5,101,45,191,62,241,198,191,250,249,147,191,112,76,84,191,59,184,154,191,249,100,18,192,86,249,0,191,184,131,143,190,229,247,117,190,152,2,208,191,14,28,175,191,116,58,218,191,109,93,75,63,142,147,28,191,60,32,26,61,226,159,173,62,160,78,132,191,39,63,117,191,25,252,65,191,124,71,249,190,221,33,157,191,97,85,129,62,246,3,34,191,17,161,99,63,52,51,7,63,218,85,13,63,163,39,218,190,235,10,166,191,30,84,152,190,108,85,111,191,91,188,255,191,225,73,184,190,218,248,38,191,214,132,2,193,205,98,188,190,92,24,26,63,159,183,69,192,75,151,205,190,37,98,199,190,55,179,231,191,186,158,95,63,77,212,169,188,61,129,77,191,120,225,204,62,230,42,23,191,162,152,196,191,255,186,142,189,172,61,117,190,14,106,59,191,34,206,103,191,117,45,0,192,51,169,66,190,192,246,140,191,88,236,247,188,68,76,135,62,13,4,58,191,172,100,169,191,25,116,24,192,64,34,117,191,44,177,149,192,227,253,61,62,246,153,76,61,112,144,0,63,130,25,32,191,173,76,215,191,14,4,2,191,111,61,252,191,18,209,52,191,160,55,126,191,93,53,67,192,17,232,196,63,61,96,210,191,13,60,20,62,24,49,192,63,219,79,84,63,182,232,143,63,138,251,247,190,51,154,30,190,56,136,122,62,132,207,138,191,185,17,27,63,214,221,55,63,28,236,150,190,252,25,71,191,221,93,152,62,188,139,153,62,160,23,16,191,112,161,13,191,31,35,172,62,79,127,10,61,248,24,90,190,209,136,22,189,79,61,151,63,246,192,240,190,207,115,52,62,78,170,132,63,230,235,163,191,176,166,151,191,71,5,41,192,193,18,206,62,117,106,72,62,244,165,26,64,209,172,4,191,251,248,165,62,13,32,132,191,168,156,59,63,113,212,41,62,94,254,175,191,158,149,182,63,249,245,215,190,4,12,74,192,183,56,96,191,60,134,74,63,159,12,209,62,201,178,240,190,84,134,19,190,64,167,38,191,27,142,18,191,86,144,224,191,248,159,196,191,239,33,227,190,170,239,77,190,248,70,148,190,146,255,93,191,78,206,169,191,241,123,0,191,20,234,88,191,9,216,161,62,21,120,76,191,97,149,11,191,93,119,125,191,140,79,187,190,79,255,176,191,3,42,249,62,56,138,117,191,149,54,16,63,139,7,221,191,153,239,210,62,232,180,132,63,106,68,0,63,114,51,94,191,106,10,201,62,33,39,57,190,128,12,19,192,175,238,182,62,138,210,220,62,208,221,93,63,231,47,205,63,76,172,219,190,16,187,245,190,57,144,156,191,225,158,217,62,26,58,35,192,205,186,79,63,104,63,157,190,254,29,188,62,59,180,110,190,69,64,139,192,168,159,131,63,65,69,214,63,133,129,48,63,190,99,1,192,187,57,203,62,44,150,35,191,227,9,56,63,168,135,192,62,198,81,61,190,160,7,38,191,2,146,228,63,104,73,91,62,26,226,148,190,100,64,72,63,65,89,235,60,174,168,22,63,103,199,168,62,197,188,190,190,188,183,192,189,16,212,13,63,130,233,181,190,231,176,50,191,59,89,5,61,248,7,25,191,157,176,88,189,196,41,253,190,41,253,5,191,56,120,51,191,219,143,125,63,157,21,166,63,64,38,42,192,29,225,136,62,83,60,123,189,129,185,41,191,244,198,67,191,90,0,81,191,223,168,24,191,3,70,71,191,189,29,87,63,42,74,189,192,6,40,179,191,221,138,195,190,202,223,86,62,193,232,188,191,242,31,243,190,242,4,56,191,20,53,174,190,93,104,150,191,25,6,50,63,203,179,214,63,191,4,19,63,70,148,71,191,225,3,173,62,221,109,119,63,67,161,232,189,84,94,76,191,49,31,96,192,87,236,46,62,206,45,47,191,29,13,179,189,87,136,175,191,192,196,228,191,44,24,178,62,88,73,155,63,202,187,69,63,49,140,85,191,84,49,53,192,34,148,222,191,9,55,71,191,192,236,113,61,19,31,81,191,169,105,12,191,79,19,155,62,223,98,5,191,8,88,189,190,222,169,37,191,115,126,153,191,127,11,130,62,136,144,52,191,182,234,201,190,120,47,160,63,205,253,126,189,180,38,38,63,202,221,47,63,50,151,86,191,117,214,164,61,228,241,26,191,21,213,108,63,243,129,128,191,168,217,177,191,241,131,1,63,205,228,233,62,171,64,242,62,113,77,10,63,32,43,10,189,104,222,201,190,91,93,63,191,149,152,245,191,125,193,168,190,15,107,28,189,229,57,246,190,228,78,12,191,104,98,194,190,168,58,167,190,175,161,17,191,110,175,137,61,62,130,106,191,253,68,41,64,103,2,13,191,221,122,40,190,0,143,28,191,106,104,8,63,101,163,43,63,143,146,145,61,142,108,33,60,165,63,171,62,58,0,190,190,70,215,63,191,20,190,158,63,44,150,58,191,243,97,163,62,194,50,178,190,251,228,218,191,219,247,21,63,62,198,113,190,75,99,135,191,237,227,28,191,222,192,218,191,7,82,172,192,30,169,88,62,198,9,147,62,30,80,215,192,88,220,130,191,122,134,16,190,181,182,74,191,249,227,98,191,194,23,26,190,45,48,116,190,180,253,8,64,107,67,156,62,156,144,46,62,168,199,138,63,142,126,213,190,233,99,33,192,18,164,45,191,94,209,11,63,113,37,47,63,220,88,71,191,92,110,74,63,31,245,116,63,86,127,230,190,80,169,206,190,209,62,40,191,62,205,151,191,120,190,204,62,95,206,20,62,30,246,73,61,88,29,149,63,133,63,75,192,136,58,64,63,40,18,2,63,244,30,209,189,96,114,83,63,145,118,65,191,159,223,109,63,79,185,143,188,82,250,129,191,73,115,167,192,3,182,160,191,65,179,135,191,201,187,23,191,54,166,155,63,208,247,110,191,36,36,11,191,23,209,162,62,141,56,126,63,81,99,195,190,87,251,120,191,172,64,138,63,122,83,171,62,112,66,12,63,143,113,193,189,186,137,102,63,157,243,229,190,201,249,36,190,214,58,227,61,213,193,142,63,238,119,56,190,18,92,156,190,230,202,241,191,197,187,79,191,253,194,67,191,170,145,10,191,17,189,60,62,128,51,95,192,23,216,222,188,94,223,98,192,217,116,139,62,51,23,158,62,159,66,210,62,179,102,72,191,56,42,154,62,14,229,123,191,201,221,74,62,217,198,200,191,30,1,102,63,107,200,233,63,36,193,130,189,189,133,85,63,145,188,9,189,177,91,197,62,183,88,152,62,135,79,50,191,75,100,147,189,192,80,193,62,220,204,56,191,170,147,169,63,84,44,187,190,22,208,230,61,9,135,188,190,56,38,104,63,113,155,134,63,63,17,156,189,41,78,23,191,197,74,13,190,35,159,6,191,235,251,3,64,157,209,140,189,89,226,250,190,236,175,138,63,42,55,137,63,20,130,79,191,203,149,136,63,7,157,157,191,199,155,202,63,193,43,140,63,148,138,71,190,222,168,166,63,59,141,248,62,130,183,218,62,56,182,49,62,65,188,6,192,19,198,216,190,112,240,105,191,222,94,227,60,42,122,180,191,20,213,76,191,152,93,51,191,47,68,18,190,199,45,18,63,105,200,84,191,153,251,48,63,86,216,8,62,54,83,95,63,117,114,9,191,49,169,78,192,164,218,115,64,97,68,124,63,26,192,102,61,229,214,183,61,103,38,186,191,0,29,24,191,175,23,4,191,220,181,59,63,254,135,220,62,230,168,107,63,211,108,109,190,106,122,105,191,69,157,115,190,138,20,197,190,52,228,214,63,100,46,206,63,218,76,250,61,78,163,66,63,91,107,150,191,73,160,128,63,200,247,136,191,174,124,128,190,81,26,57,190,37,207,69,191,156,196,4,62,125,166,197,190,210,51,46,63,200,240,185,63,11,56,134,63,154,131,18,64,213,56,54,192,218,187,42,191,217,158,214,62,231,2,55,63,104,222,193,188,240,95,237,62,214,21,14,64,184,138,97,190,174,253,48,190,29,211,190,190,13,94,83,190,188,204,103,63,247,127,151,191,190,192,26,62,39,14,75,191,164,11,68,191,2,70,154,189,127,149,3,190,130,161,133,63,60,220,65,191,72,16,64,190,91,179,226,61,35,47,197,62,79,110,107,62,139,120,142,63,141,222,225,190,104,1,134,64,195,204,33,62,92,33,247,189,89,132,173,60,75,231,48,63,187,133,235,191,240,77,216,191,151,91,127,63,250,199,107,62,216,55,106,63,118,5,62,62,189,172,151,62,149,122,116,64,58,3,54,62,180,183,7,63,30,232,238,63,172,128,34,192,220,143,128,191,235,132,32,63,60,149,144,63,137,19,77,191,173,152,58,63,191,234,155,63,130,141,195,190,132,70,199,63,13,135,144,62,73,71,114,62,154,129,223,190,127,33,188,62,80,178,30,190,152,15,5,63,188,71,8,62,196,172,35,191,111,222,74,63,134,189,162,62,120,69,224,190,149,214,75,191,246,37,104,63,37,86,33,191,167,9,113,63,199,203,249,190,182,1,10,62,178,196,179,63,24,71,66,191,145,100,131,62,121,32,40,63,161,81,35,63,68,87,32,63,148,218,237,62,46,183,155,191,91,52,1,192,187,125,164,63,30,93,156,63,47,12,185,61,100,190,127,63,134,152,211,191,90,104,147,191,9,177,37,63,59,116,52,191,213,170,196,190,41,86,132,191,149,208,143,191,106,87,186,190,94,229,201,188,251,222,63,191,106,140,156,191,117,28,42,63,242,41,208,190,200,236,141,62,171,3,197,190,16,15,23,63,38,175,68,63,45,29,153,191,247,147,146,63,253,114,58,191,122,23,89,192,174,161,172,190,182,123,147,189,45,16,43,63,224,153,173,62,211,91,82,190,178,19,54,63,201,222,88,190,26,133,6,63,24,134,112,191,243,251,152,190,203,70,165,63,73,141,30,191,202,95,250,62,231,71,159,190,223,20,26,63,168,76,9,63,237,118,237,63,167,87,93,191,114,234,39,190,160,197,146,191,172,157,99,190,229,205,19,63,42,34,206,190,199,199,44,191,130,39,3,191,57,107,41,64,135,87,147,190,83,245,253,190,182,60,186,190,33,164,102,191,215,119,106,63,201,160,53,63,250,227,91,63,128,128,54,191,142,178,242,190,192,33,148,191,146,232,110,63,136,63,104,63,184,108,6,63,120,142,159,191,17,105,97,63,212,223,166,191,180,214,138,62,202,172,41,63,243,255,103,191,191,75,148,63,56,255,100,191,65,32,31,191,135,220,214,190,233,218,145,188,211,20,149,190,216,54,135,63,25,98,85,63,194,97,167,63,219,214,183,190,13,57,6,191,127,172,142,190,249,137,24,191,160,85,132,191,76,230,39,63,151,134,221,190,159,135,170,191,166,36,21,189,207,136,150,191,81,219,92,192,39,136,157,62,20,76,240,190,161,73,253,191,171,114,75,62,170,86,34,189,97,230,227,62,140,117,12,190,27,253,226,190,183,165,157,191,28,78,168,62,98,231,113,62,60,9,178,190,15,163,196,191,80,90,99,191,68,172,214,190,4,39,203,61,244,64,97,188,221,31,116,63,22,149,234,63,108,112,141,191,239,194,78,63,119,16,139,190,108,191,37,191,67,188,137,191,243,149,113,62,252,173,131,63,103,230,82,62,192,82,202,62,251,109,149,191,181,202,239,62,32,209,236,191,163,28,98,190,239,100,128,191,206,43,20,63,252,138,117,64,180,209,74,190,3,139,99,63,105,7,27,64,41,38,158,191,242,0,114,191,89,21,55,190,186,67,153,190,209,138,255,62,92,114,84,63,183,85,53,60,17,181,35,62,8,194,27,63,25,252,167,189,2,103,235,62,101,200,13,64,166,245,33,191,62,190,40,63,1,120,113,62,174,3,55,190,118,217,139,62,80,57,106,62,170,11,155,60,149,3,51,63,50,161,121,191,48,221,101,191,134,107,136,63,234,129,1,191,31,76,21,192,116,61,91,63,21,135,249,62,12,184,41,64,245,61,110,62,54,14,119,61,56,232,178,189,78,237,112,62,67,102,1,63,68,148,250,60,42,136,133,191,13,92,174,191,129,78,37,190,78,37,168,62,240,177,0,191,74,165,202,63,45,62,251,189,229,36,32,63,247,70,154,61,49,76,98,62,115,252,127,63,123,215,81,62,188,4,176,191,136,108,161,189,111,255,15,63,105,21,231,61,71,51,91,189,207,102,131,190,50,125,10,63,86,13,29,61,139,19,177,190,135,232,55,191,159,116,227,62,63,189,223,63,12,138,8,63,23,241,119,191,52,108,91,64,90,35,19,191,144,155,143,190,152,175,13,191,141,115,117,64,251,187,197,191,141,125,190,63,136,238,130,190,209,209,145,63,209,123,179,187,159,11,104,191,80,57,214,63,243,5,128,63,205,141,166,190,151,59,34,191,214,51,99,63,163,200,166,190,35,174,66,192,138,119,86,63,199,31,210,190,38,89,189,190,192,189,97,191,109,115,48,62,33,91,128,63,41,237,161,62,11,221,243,191,39,138,225,62,76,14,54,192,142,196,154,63,68,56,63,64,117,71,144,61,38,62,19,62,22,7,204,63,185,213,38,63,8,147,128,191,173,84,221,190,221,189,137,190,90,180,212,190,12,222,76,191,34,232,135,191,145,249,187,62,28,1,60,191,24,69,163,191,49,195,90,191,47,232,136,63,36,134,164,61,84,173,0,63,85,75,135,61,60,98,10,63,232,4,153,63,158,139,170,191,34,100,129,63,161,70,37,63,55,45,28,63,246,6,208,190,29,65,31,191,138,49,150,59,161,218,109,62,47,227,179,191,122,20,188,62,203,213,235,63,79,110,177,63,152,185,90,190,149,6,110,191,22,3,170,62,133,225,154,191,118,158,78,63,248,206,19,62,121,255,47,64,23,186,10,191,217,114,33,62,157,21,114,191,119,39,57,191,22,126,107,190,121,181,129,63,59,25,80,190,128,48,171,189,84,17,92,62,189,82,204,190,241,50,14,64,135,186,187,190,232,95,94,191,64,169,205,63,179,4,161,190,251,39,74,63,66,164,51,191,104,217,203,191,64,250,74,62,136,241,78,192,99,233,39,64,226,41,246,191,35,39,241,188,76,184,194,64,111,181,126,63,223,109,86,63,216,91,217,190,136,149,12,191,150,1,182,190,172,113,145,191,234,171,120,62,181,202,59,62,41,6,164,62,105,196,18,191,253,96,201,63,233,152,64,191,230,71,247,190,33,124,205,190,112,46,46,191,224,133,154,62,158,168,80,191,71,41,103,191,91,42,243,190,181,229,100,62,222,46,224,190,221,212,111,63,209,193,149,190,68,30,196,191,196,33,3,191,20,151,2,64,20,231,97,64,131,201,21,63,102,73,192,189,227,169,159,63,62,143,176,63,51,150,11,190,153,245,28,192,165,81,72,63,5,230,27,60,110,68,120,64,246,46,30,63,227,213,1,192,110,28,64,190,160,203,50,63,8,193,139,190,128,223,91,190,103,56,34,63,195,167,230,63,116,62,239,61,132,62,102,63,247,40,137,191,24,108,54,62,95,142,49,62,172,2,10,191,111,50,122,63,30,114,207,62,12,59,236,63,69,254,105,190,203,105,149,190,189,103,237,190,221,156,10,190,176,86,175,190,221,178,153,63,156,138,130,191,167,49,160,191,124,215,51,63,178,89,58,64,154,204,193,191,28,190,87,64,7,120,35,191,44,35,135,63,87,235,230,191,241,244,122,190,34,141,2,63,83,38,169,191,16,154,247,62,113,101,83,62,26,149,176,188,173,130,154,191,236,88,37,63,136,211,64,191,140,174,126,63,239,199,142,62,78,163,2,191,212,42,123,191,188,172,99,191,25,215,111,61,144,254,129,63,77,214,246,63,215,57,187,63,198,138,27,191,237,27,48,190,44,223,24,191,239,239,31,191,115,175,68,63,129,209,198,191,234,114,102,191,98,84,112,63,214,124,65,191,191,197,148,189,71,118,157,191,205,114,156,191,161,83,183,191,216,67,38,63,52,10,183,62,159,11,56,191,119,40,243,62,51,83,21,63,62,181,95,62,76,100,249,190,212,136,152,191,193,212,153,190,200,113,70,63,192,25,76,63,252,122,236,190,163,242,199,189,85,114,202,189,121,232,28,63,177,201,20,63,39,130,180,62,181,92,167,62,147,33,33,190,68,5,229,191,40,70,133,191,152,240,35,62,21,115,6,191,239,153,161,62,101,86,32,192,52,13,173,192,70,15,136,62,110,96,222,62,141,32,11,192,69,138,121,62,127,103,146,63,189,49,196,191,239,203,51,62,188,198,236,61,169,23,89,191,214,237,32,191,204,189,38,189,242,203,104,63,118,56,41,63,25,8,248,63,71,222,253,191,52,88,241,188,121,25,70,62,218,183,62,63,95,206,5,191,12,141,142,62,31,228,245,59,152,254,185,62,1,54,204,190,76,200,67,191,130,179,79,62,204,40,34,63,199,141,93,191,195,89,71,191,148,28,34,192,174,150,56,64,127,160,128,62,217,90,4,63,254,67,93,191,70,109,209,191,152,125,60,63,55,195,238,63,123,31,33,63,71,26,179,191,146,236,8,191,236,231,3,192,214,200,9,191,199,70,143,189,64,13,133,63,148,101,176,191,160,225,105,63,59,65,10,190,102,172,14,192,47,96,96,191,155,211,255,191,214,51,198,191,55,19,118,63,86,47,6,63,45,113,76,63,81,38,80,63,121,231,34,186,69,158,187,190,248,45,171,190,133,3,34,191,94,62,208,61,66,45,100,63,248,20,94,192,124,29,58,63,127,0,158,191,41,124,197,191,1,175,243,61,94,104,68,192,62,64,42,192,71,146,48,62,204,220,140,62,135,123,24,63,186,17,128,63,41,86,105,190,50,184,53,191,41,131,157,62,162,135,199,189,219,157,150,63,145,102,189,190,8,237,242,62,215,153,51,61,144,63,132,190,60,70,82,191,196,222,144,190,212,30,199,188,200,177,56,191,223,228,4,62,218,170,253,189,1,196,203,62,176,109,137,191,71,34,59,63,71,6,161,190,135,159,129,190,211,128,191,189,17,13,219,62,28,143,140,189,23,130,92,62,94,219,135,190,92,116,26,190,243,175,223,191,61,84,194,191,92,3,150,63,185,165,237,62,156,140,7,63,209,232,222,63,214,237,56,191,90,85,103,63,59,197,113,191,87,125,79,191,69,179,62,63,201,233,207,63,95,136,154,191,68,228,130,191,76,190,136,191,245,79,115,191,18,63,236,190,225,148,5,191,17,208,197,190,199,79,241,191,189,68,148,191,15,110,102,62,220,157,119,190,202,180,179,191,23,197,212,189,213,202,105,191,206,27,138,63,128,142,254,190,29,64,173,191,126,153,36,63,236,163,63,192,5,71,103,62,2,222,208,61,90,20,52,192,160,181,99,63,236,106,10,63,46,122,31,192,254,20,251,190,215,24,19,63,239,107,239,189,40,217,15,62,184,85,24,191,109,107,249,190,215,222,207,188,13,24,50,62,166,193,122,63,136,118,241,60,117,3,136,59,116,124,24,191,244,98,63,191,34,62,193,63,71,84,161,63,119,119,167,191,140,12,133,63,233,239,188,61,237,56,87,190,65,159,38,190,142,253,161,189,157,221,178,190,206,187,132,63,174,215,251,191,224,239,210,189,220,224,247,62,86,221,190,191,24,91,189,191,106,91,148,61,145,114,18,192,0,229,184,62,76,222,111,63,232,194,19,64,138,1,89,189,192,210,222,62,86,201,30,63,193,18,81,191,205,17,143,191,235,35,67,62,10,159,28,191,186,246,214,63,48,63,21,62,86,51,159,62,159,240,19,191,101,76,84,62,108,61,154,62,20,2,67,63,181,239,38,63,75,179,0,63,15,243,131,191,32,223,36,62,41,132,166,191,242,64,193,189,74,251,198,63,43,242,221,63,215,29,48,63,198,222,179,190,6,128,190,63,86,156,46,63,226,57,20,192,109,9,133,63,89,54,95,190,232,245,144,61,110,121,102,61,242,38,158,189,93,246,3,63,134,34,177,62,236,155,49,191,111,184,224,62,180,51,64,190,21,245,177,189,119,223,81,63,27,33,162,62,65,134,220,191,47,213,113,63,164,195,41,191,86,126,79,189,90,12,40,62,67,72,13,63,172,106,228,60,218,123,74,191,152,150,192,63,70,196,0,192,211,249,245,61,32,149,60,63,235,52,133,62,126,106,9,63,205,214,143,61,85,236,160,63,114,155,125,62,24,231,54,191,232,182,108,191,99,70,217,190,126,36,138,63,94,147,197,191,45,171,46,63,190,106,41,191,84,1,175,191,214,51,89,63,209,163,154,62,35,142,186,61,15,222,13,192,91,146,160,191,252,99,243,61,229,144,49,190,108,254,224,62,157,172,60,64,215,86,5,191,131,238,108,191,184,62,106,62,101,188,68,190,89,180,235,62,98,130,38,191,36,235,132,63,81,123,47,63,243,133,84,62,235,166,184,62,119,14,153,190,232,170,159,191,197,70,195,62,74,169,108,192,232,119,170,62,35,155,55,191,41,79,110,191,192,201,129,64,12,92,42,190,116,250,170,62,152,27,12,64,230,231,24,63,37,143,141,191,96,36,33,192,38,136,159,191,16,8,58,191,54,86,2,63,97,209,83,191,157,101,127,63,148,94,212,61,166,0,84,191,218,133,66,62,239,49,177,62,173,70,200,62,186,19,75,191,57,181,63,191,149,62,230,59,218,204,40,190,207,138,31,189,248,38,118,62,11,86,185,62,21,70,48,192,124,78,79,191,226,139,220,61,35,246,151,191,135,152,192,190,86,23,11,62,232,169,176,63,245,198,218,62,209,115,154,190,135,247,157,190,230,215,227,62,184,118,102,191,165,230,28,192,87,20,59,191,115,22,74,192,164,97,249,62,37,37,138,63,156,136,50,63,146,92,43,63,100,96,212,190,243,125,110,191,147,213,244,189,45,41,91,190,197,123,68,191,239,50,52,63,181,208,245,190,187,192,229,62,250,244,28,62,170,217,91,190,181,8,17,64,12,225,2,192,53,196,247,59,179,91,26,63,212,85,104,63,80,15,32,191,137,82,205,190,154,112,206,62,98,11,9,191,52,12,108,191,160,228,30,63,99,47,136,191,163,166,38,64,240,154,112,190,50,217,96,62,10,237,97,191,179,80,103,189,242,45,202,191,55,202,72,62,251,125,218,191,31,51,238,62,100,39,142,191,106,9,55,188,248,53,63,63,187,214,244,191,64,147,40,190,147,249,46,62,46,110,45,63,27,75,171,62,83,79,219,61,40,253,135,189,23,251,125,62,182,155,238,191,229,95,16,191,188,173,71,62,158,81,38,189,57,38,125,62,219,118,170,190,75,238,122,191,240,37,23,62,183,254,55,190,36,159,154,63,100,187,150,191,96,82,93,63,70,164,245,190,23,108,168,191,12,172,6,63,201,169,235,63,10,182,157,191,221,14,166,62,8,173,151,62,211,74,56,64,70,169,128,191,223,81,154,62,2,149,64,63,158,245,112,62,219,207,33,63,33,73,198,63,120,125,93,191,184,170,107,63,5,44,15,191,28,182,30,191,186,79,26,64,145,184,159,190,166,178,82,191,184,158,31,191,93,237,154,190,137,20,127,63,37,158,226,190,78,21,176,191,31,138,83,63,193,54,63,192,50,184,249,190,126,97,251,62,115,85,44,191,97,97,20,191,71,2,188,190,126,7,37,63,129,120,161,63,44,116,79,190,0,0,64,190,65,61,178,191,123,34,224,191,103,226,35,61,142,173,114,189,39,0,104,63,78,121,166,191,22,212,255,191,18,54,29,191,143,2,218,61,174,121,182,63,114,42,137,190,115,251,253,191,22,88,139,191,49,22,154,190,12,115,21,190,87,212,16,62,74,20,215,190,199,18,7,191,15,122,193,191,10,135,2,62,219,137,98,192,46,181,221,191,170,179,159,190,12,212,156,190,113,54,192,63,77,180,191,63,14,179,204,190,171,199,249,191,40,169,0,63,2,71,114,63,87,207,51,192,201,29,23,63,211,239,22,192,146,13,144,190,199,50,31,64,46,17,150,191,66,45,59,62,85,246,178,62,48,88,110,63,223,86,239,188,236,76,210,190,31,148,31,63,107,87,26,188,197,190,96,191,185,174,165,190,178,101,136,62,160,199,43,63,239,232,156,63,182,29,200,191,33,78,191,62,102,226,184,62,87,254,108,63,175,225,68,191,8,223,173,189,203,73,43,191,157,204,189,191,106,118,16,63,186,111,251,62,224,151,27,192,147,51,200,190,6,69,111,62,117,18,37,62,41,159,24,63,110,71,184,62,187,252,147,191,237,85,83,191,37,58,7,63,234,254,58,63,4,246,216,62,85,215,119,63,195,187,161,63,77,201,196,191,74,151,136,191,156,170,178,62,114,173,7,63,254,42,66,190,37,96,196,190,103,196,145,63,206,133,13,191,18,112,175,61,96,44,156,62,139,210,35,191,8,14,230,61,147,40,222,62,158,144,254,62,168,0,214,191,54,200,190,191,117,91,180,62,5,244,184,191,4,154,40,191,224,160,201,62,124,185,209,63,100,71,184,189,150,207,213,190,29,85,84,190,227,46,154,191,104,137,90,63,6,196,155,63,59,62,186,190,40,160,167,189,226,33,66,191,95,60,34,63,124,182,214,62,152,71,145,63,221,98,152,191,175,202,47,191,233,197,75,191,16,117,226,62,69,111,95,63,59,212,254,63,161,155,97,190,21,166,92,190,210,101,73,191,108,173,214,191,117,63,149,191,64,42,132,191,193,10,135,191,143,53,207,62,125,4,221,190,159,156,13,192,133,169,119,191,5,180,17,191,236,251,172,64,204,191,34,63,60,148,81,63,152,252,29,64,135,224,17,191,79,183,68,61,253,201,174,191,104,125,155,191,3,17,123,191,124,65,74,63,189,43,47,190,230,81,237,63,88,35,178,63,71,230,224,62,151,78,12,62,32,66,133,63,25,111,63,63,108,248,152,62,23,66,77,63,219,147,27,191,156,169,231,62,251,125,12,191,34,244,239,190,220,31,194,190,101,221,140,191,177,73,90,63,170,5,88,192,166,27,247,63,243,226,101,61,150,244,246,190,128,63,40,191,111,157,138,63,68,240,80,191,97,151,134,63,49,101,87,191,241,190,145,63,57,66,132,63,198,188,213,63,118,210,68,190,232,149,175,190,234,5,255,190,47,84,247,63,122,53,128,191,234,246,39,61,82,4,97,63,71,186,106,63,166,9,11,63,234,143,53,191,252,213,138,190,3,233,163,190,0,100,28,190,30,196,174,62,19,54,19,63,182,134,9,64,130,119,189,191,177,171,69,62,158,15,37,63,236,253,122,63,221,165,175,63,55,177,89,191,137,238,12,189,142,231,158,63,237,206,3,62,49,128,82,63,194,4,97,192,110,90,93,64,139,165,17,63,98,94,56,189,142,198,53,190,21,142,83,190,42,47,131,191,181,191,51,191,181,170,163,63,253,192,221,62,201,63,164,190,103,218,11,63,145,175,100,63,27,54,229,56,199,130,196,62,186,169,232,62,141,8,63,61,135,127,14,61,209,126,148,62,122,149,195,62,234,119,227,60,76,52,182,191,112,102,159,63,183,162,206,62,17,67,170,190,229,79,57,189,7,186,152,190,52,23,46,191,194,43,82,63,56,42,190,60,184,246,124,62,0,92,147,191,224,58,56,192,130,109,204,63,85,82,224,190,38,14,244,191,138,83,195,63,79,101,74,190,225,82,188,62,60,169,177,190,156,46,13,192,1,178,135,191,188,211,5,190,9,152,15,192,207,34,154,191,228,171,13,63,62,26,1,192,191,211,6,189,201,104,28,63,240,77,19,62,190,192,163,62,146,69,100,191,243,190,16,63,96,61,250,189,58,240,144,63,81,246,219,191,84,101,56,62,252,132,106,63,196,155,156,190,54,79,12,191,233,18,245,62,188,130,78,192,188,97,6,191,166,151,229,62,216,22,65,64,91,66,72,191,117,17,252,190,71,43,14,192,155,114,140,190,153,59,15,63,25,217,35,63,41,147,179,63,235,42,0,62,33,1,104,63,0,238,169,190,67,26,143,62,203,59,167,63,119,37,216,61,6,74,120,191,161,187,28,191,52,76,132,190,21,36,35,191,138,91,8,191,99,190,92,191,107,34,81,63,228,155,48,190,155,134,185,190,55,210,81,191,16,55,128,63,187,157,157,191,204,111,6,64,205,38,124,192,233,189,147,62,249,160,148,62,175,31,93,191,164,144,4,192,6,160,175,190,54,17,138,62,99,63,122,191,166,30,10,63,228,125,55,192,161,165,18,62,115,115,46,62,202,42,10,62,123,141,201,63,16,246,27,63,127,120,149,63,36,56,156,62,179,211,153,191,181,209,191,191,182,174,7,191,172,38,221,62,121,163,64,63,119,100,57,191,200,152,160,191,204,78,11,63,90,185,202,191,9,153,151,192,31,80,139,63,95,35,239,189,2,221,37,63,115,91,126,63,37,21,247,190,223,22,68,191,28,119,173,190,227,131,123,190,84,108,81,191,215,24,146,191,164,209,150,63,33,6,6,64,103,191,183,189,154,212,140,191,98,178,233,190,92,16,233,189,13,227,26,190,111,91,210,190,6,43,50,191,12,75,10,192,65,111,209,62,214,28,210,62,84,59,166,62,149,224,148,190,86,77,155,63,171,56,18,191,193,173,116,62,229,235,56,191,227,207,164,190,201,27,114,191,91,225,216,190,205,216,152,63,244,66,27,192,3,87,204,190,235,233,96,190,196,245,77,189,95,138,23,189,80,108,22,190,102,147,72,63,186,10,72,60,107,38,218,62,173,71,216,191,125,7,172,63,244,32,244,188,117,72,230,62,249,30,224,61,190,81,140,192,156,162,15,63,84,96,8,63,115,164,133,192,144,3,248,191,64,229,33,61,119,95,95,63,197,170,192,189,65,64,113,190,48,239,71,62,111,226,125,192,226,62,165,62,81,82,55,63,172,79,108,63,106,116,239,190,39,121,113,192,122,56,230,61,219,72,4,63,122,171,144,63,69,21,44,191,147,31,219,190,38,5,30,190,53,59,61,62,130,250,115,62,49,27,168,190,230,47,155,63,57,160,209,62,232,194,9,188,132,107,145,191,33,75,6,189,148,226,155,190,132,90,167,192,8,160,39,189,215,228,179,62,42,94,153,62,225,120,128,63,143,43,32,61,166,154,244,61,193,44,175,62,161,42,170,63,16,124,200,62,233,232,60,190,112,30,84,63,91,69,134,62,129,203,47,63,132,52,105,63,74,57,16,63,185,209,55,189,116,106,136,62,235,5,171,62,121,111,124,62,31,158,250,189,33,211,131,63,86,51,98,191,21,105,71,63,21,67,62,192,127,199,58,189,129,52,38,61,102,250,182,191,158,31,32,191,3,212,181,190,112,81,135,191,120,72,132,62,181,105,96,191,9,247,134,192,223,185,170,63,102,142,115,190,83,0,128,190,178,4,93,192,4,67,245,191,215,139,248,191,14,235,241,61,243,104,237,191,6,112,26,191,231,98,168,63,224,38,141,191,58,61,94,191,202,141,131,191,212,21,51,63,37,62,181,191,177,57,103,191,248,168,142,190,78,227,2,191,96,79,118,191,96,148,24,191,54,56,115,63,246,155,80,192,148,130,151,60,189,92,145,61,40,49,131,63,227,103,58,63,21,153,95,192,65,133,250,63,208,10,1,63,234,167,91,191,177,17,79,62,253,103,149,191,220,97,80,62,210,53,199,190,236,191,210,190,29,32,201,191,44,58,142,191,7,149,46,191,142,180,47,191,156,92,37,191,86,106,178,189,201,50,173,62,213,137,67,63,225,38,102,63,130,124,194,190,16,149,152,190,106,154,197,186,45,113,209,191,45,35,254,190,96,249,167,191,10,123,48,191,130,121,145,61,35,15,112,63,196,183,204,62,165,17,15,191,108,212,237,62,135,199,219,62,188,126,168,63,92,163,174,62,82,35,193,189,78,108,166,63,122,150,114,63,184,57,143,191,33,30,172,189,241,69,199,61,214,139,81,191,36,43,31,190,115,122,97,64,255,101,172,190,197,77,50,62,153,241,64,63,224,152,163,61,165,37,138,63,203,121,48,61,53,197,53,191,49,167,28,189,250,228,23,191,33,100,134,190,6,81,222,191,30,213,9,191,39,67,73,63,47,217,191,63,227,126,192,62,149,0,169,62,101,25,69,63,48,79,18,191,103,217,157,62,40,173,130,63,83,114,97,189,163,6,160,191,83,217,216,60,236,255,43,64,81,183,199,190,185,240,66,63,145,50,63,192,103,139,229,62,71,93,136,62,220,107,39,63,28,130,230,63,128,13,18,191,21,141,102,191,137,201,151,190,99,218,176,189,228,107,175,63,148,148,214,62,146,76,177,62,188,114,141,63,102,194,84,190,236,138,116,191,185,200,50,63,40,167,186,190,232,150,131,191,99,128,180,190,44,126,105,63,189,51,41,191,103,20,88,61,224,192,207,63,228,150,202,62,106,21,41,192,216,163,26,191,91,234,140,190,206,225,101,191,175,195,141,63,228,156,85,191,53,124,231,62,129,27,186,62,69,141,23,191,14,146,146,192,255,21,19,64,251,148,226,62,181,121,23,191,4,42,89,61,179,111,22,63,18,202,204,63,80,157,14,191,32,101,13,62,242,248,69,63,253,133,178,63,139,165,86,191,142,111,79,190,124,23,116,190,17,82,112,63,38,124,128,62,166,180,76,189,120,67,32,64,65,8,131,187,60,222,128,191,155,234,185,60,96,105,134,191,98,105,159,191,152,173,178,191,177,115,22,191,85,239,185,62,4,214,114,63,37,191,248,63,243,16,112,190,58,190,154,63,229,160,77,62,162,159,145,62,14,41,18,191,108,86,222,191,21,128,30,63,176,105,139,191,200,210,40,63,175,52,94,62,23,6,218,191,239,47,224,190,242,71,36,63,89,85,215,191,109,130,19,62,79,5,220,59,80,20,52,61,238,77,247,62,151,9,126,63,76,84,20,190,227,160,147,190,180,253,223,62,22,61,32,63,240,5,47,62,175,129,186,190,231,134,106,191,106,233,163,63,99,31,150,191,214,53,107,63,118,16,164,190,9,129,124,63,53,195,223,191,109,180,215,191,53,224,184,63,82,37,72,190,81,193,104,62,234,234,193,191,158,212,198,62,56,64,65,191,226,11,144,189,40,190,144,59,153,200,86,191,39,226,150,191,209,165,160,61,3,24,119,63,49,179,205,61,136,57,160,62,223,1,144,61,241,153,11,191,98,6,124,63,37,152,12,62,150,245,124,63,21,57,5,63,228,47,252,62,94,255,4,64,171,167,87,191,60,95,14,191,162,111,121,191,145,181,134,191,98,101,102,191,197,187,52,192,15,244,170,192,178,41,139,189,131,101,198,61,91,86,161,63,170,45,13,191,166,106,215,190,51,42,88,63,237,101,161,62,195,57,4,63,229,29,153,62,194,79,223,63,9,186,202,62,68,144,148,190,23,81,49,63,2,12,68,191,109,249,119,63,249,206,1,191,41,196,250,62,187,166,30,191,229,58,202,62,136,41,190,62,254,12,132,191,131,105,27,191,151,225,1,191,155,217,20,63,207,81,51,63,35,50,58,63,199,186,248,62,251,124,233,62,29,232,34,64,40,219,203,60,201,123,215,61,224,19,212,62,215,186,226,191,118,88,166,190,193,28,193,62,136,187,65,191,90,145,69,191,48,13,43,191,56,221,130,192,4,44,82,191,154,123,239,191,239,191,29,190,197,152,221,63,60,53,248,191,16,249,22,63,218,156,133,63,99,152,61,191,10,252,31,63,43,140,232,62,90,174,16,192,40,34,246,62,134,249,239,190,113,154,133,191,51,216,15,62,14,102,83,191,105,213,54,191,197,